<pad>	0
<s>	0
</s>	0
<unk>	0
[MASK]	0
▁t	-0
he	-1
▁a	-2
▁.	-3
▁s	-4
in	-5
▁w	-6
▁,	-7
▁i	-8
ou	-9
ed	-10
▁the	-11
▁h	-12
▁'	-13
▁m	-14
▁b	-15
▁he	-16
re	-17
▁o	-18
nd	-19
ing	-20
▁c	-21
▁f	-22
▁to	-23
er	-24
at	-25
▁n	-26
▁d	-27
▁l	-28
is	-29
▁th	-30
▁''	-31
▁`	-32
▁``	-33
as	-34
▁and	-35
en	-36
ll	-37
an	-38
▁p	-39
on	-40
▁g	-41
or	-42
▁y	-43
ar	-44
▁in	-45
▁her	-46
es	-47
it	-48
▁you	-49
▁of	-50
▁ha	-51
▁she	-52
▁e	-53
om	-54
▁be	-55
ow	-56
▁was	-57
id	-58
▁his	-59
ot	-60
▁it	-61
ld	-62
le	-63
ac	-64
gh	-65
ve	-66
▁on	-67
im	-68
▁that	-69
us	-70
et	-71
▁st	-72
ly	-73
▁my	-74
ay	-75
▁me	-76
ut	-77
▁wh	-78
▁k	-79
ver	-80
▁r	-81
▁as	-82
▁?	-83
▁re	-84
ic	-85
out	-86
ad	-87
▁we	-88
ould	-89
ith	-90
ght	-91
▁with	-92
▁u	-93
oo	-94
al	-95
▁for	-96
▁do	-97
ke	-98
▁li	-99
▁him	-100
ir	-101
▁j	-102
ent	-103
se	-104
st	-105
▁had	-106
▁an	-107
▁at	-108
▁sh	-109
▁but	-110
ur	-111
am	-112
ion	-113
ee	-114
all	-115
her	-116
ked	-117
ight	-118
▁fr	-119
▁so	-120
ant	-121
▁ne	-122
▁not	-123
pp	-124
ter	-125
ack	-126
▁sa	-127
▁kn	-128
ro	-129
hing	-130
ain	-131
▁what	-132
▁out	-133
ore	-134
▁up	-135
ce	-136
▁did	-137
▁whe	-138
ust	-139
il	-140
ill	-141
▁have	-142
ch	-143
rou	-144
▁go	-145
king	-146
ie	-147
▁no	-148
▁this	-149
ome	-150
▁is	-151
▁ab	-152
▁could	-153
▁ch	-154
one	-155
▁int	-156
ec	-157
ra	-158
▁le	-159
▁from	-160
▁back	-161
▁said	-162
ard	-163
ri	-164
hed	-165
▁would	-166
▁all	-167
▁su	-168
▁if	-169
▁loo	-170
▁like	-171
▁al	-172
ted	-173
▁want	-174
own	-175
ind	-176
▁they	-177
▁when	-178
▁ag	-179
▁cl	-180
▁v	-181
un	-182
ess	-183
ss	-184
▁just	-185
▁hand	-186
el	-187
▁were	-188
ab	-189
▁into	-190
ake	-191
▁about	-192
▁one	-193
▁know	-194
▁wor	-195
ace	-196
ag	-197
▁ex	-198
ood	-199
ast	-200
ry	-201
▁con	-202
ally	-203
▁lo	-204
▁over	-205
ide	-206
▁your	-207
ck	-208
▁ey	-209
▁there	-210
art	-211
▁sp	-212
ul	-213
qu	-214
▁te	-215
▁any	-216
▁then	-217
way	-218
and	-219
▁ever	-220
▁ro	-221
▁been	-222
▁get	-223
ven	-224
▁again	-225
lf	-226
▁see	-227
ate	-228
▁bl	-229
▁down	-230
ers	-231
▁tim	-232
ong	-233
▁or	-234
▁too	-235
▁sm	-236
▁eyes	-237
um	-238
▁ca	-239
▁un	-240
our	-241
▁se	-242
op	-243
▁de	-244
▁them	-245
▁mo	-246
▁br	-247
▁co	-248
▁off	-249
ist	-250
▁pl	-251
est	-252
▁how	-253
▁are	-254
▁thou	-255
if	-256
ice	-257
round	-258
▁head	-259
▁bo	-260
ame	-261
▁time	-262
▁who	-263
ink	-264
urn	-265
▁ar	-266
ous	-267
ting	-268
ew	-269
▁some	-270
ig	-271
▁now	-272
other	-273
ull	-274
pped	-275
ine	-276
▁more	-277
▁sl	-278
use	-279
self	-280
ation	-281
▁com	-282
ive	-283
▁even	-284
▁..	-285
▁...	-286
ps	-287
▁fl	-288
▁ac	-289
▁than	-290
▁man	-291
os	-292
fore	-293
ved	-294
▁every	-295
ick	-296
▁going	-297
ge	-298
▁way	-299
ile	-300
▁before	-301
ca	-302
led	-303
▁around	-304
▁qu	-305
▁tr	-306
▁gr	-307
▁by	-308
ving	-309
▁us	-310
nder	-311
ak	-312
iss	-313
▁can	-314
▁af	-315
▁need	-316
▁pre	-317
th	-318
▁say	-319
reat	-320
ure	-321
▁tw	-322
ound	-323
fe	-324
▁sc	-325
ther	-326
ade	-327
▁right	-328
▁!	-329
eel	-330
▁po	-331
▁en	-332
per	-333
▁let	-334
are	-335
ear	-336
pt	-337
▁som	-338
dd	-339
▁think	-340
thing	-341
ire	-342
▁here	-343
▁should	-344
▁somet	-345
▁never	-346
▁only	-347
▁feel	-348
▁look	-349
rough	-350
▁turn	-351
▁sw	-352
▁through	-353
▁gl	-354
ft	-355
ort	-356
▁thing	-357
▁thought	-358
▁face	-359
ass	-360
▁pro	-361
▁other	-362
cause	-363
▁away	-364
▁because	-365
▁looked	-366
▁che	-367
▁la	-368
▁bet	-369
▁will	-370
act	-371
dy	-372
▁good	-373
ose	-374
▁after	-375
▁pr	-376
▁still	-377
▁something	-378
ug	-379
▁their	-380
ect	-381
ened	-382
▁wanted	-383
ite	-384
▁knew	-385
aking	-386
tle	-387
▁why	-388
eep	-389
▁mu	-390
nt	-391
▁arm	-392
▁door	-393
▁made	-394
▁got	-395
▁wa	-396
▁long	-397
iz	-398
ell	-399
▁gu	-400
ched	-401
▁tell	-402
▁im	-403
▁ga	-404
able	-405
ated	-406
ue	-407
ward	-408
▁much	-409
ered	-410
▁make	-411
ach	-412
▁star	-413
ment	-414
pl	-415
▁hands	-416
▁asked	-417
ress	-418
ious	-419
▁wat	-420
ang	-421
▁pull	-422
▁am	-423
ff	-424
▁take	-425
ble	-426
ol	-427
elt	-428
ity	-429
▁happ	-430
▁lit	-431
ance	-432
ady	-433
▁room	-434
▁mom	-435
▁car	-436
ning	-437
ather	-438
▁call	-439
▁fir	-440
▁where	-441
wn	-442
te	-443
ip	-444
▁felt	-445
▁op	-446
age	-447
ough	-448
ies	-449
ase	-450
ried	-451
▁under	-452
ct	-453
▁against	-454
ks	-455
ree	-456
oice	-457
▁come	-458
▁rem	-459
▁ste	-460
med	-461
▁well	-462
▁mar	-463
▁wo	-464
▁night	-465
▁day	-466
▁dis	-467
▁ho	-468
▁love	-469
▁tal	-470
▁sure	-471
▁little	-472
▁fo	-473
▁two	-474
be	-475
side	-476
ap	-477
▁body	-478
▁wal	-479
▁hard	-480
▁took	-481
uck	-482
▁sk	-483
▁wom	-484
▁des	-485
▁really	-486
air	-487
▁our	-488
ah	-489
▁bed	-490
ath	-491
ond	-492
▁em	-493
▁cr	-494
▁first	-495
▁kiss	-496
▁voice	-497
▁el	-498
ily	-499
oth	-500
▁try	-501
▁breat	-502
de	-503
▁may	-504
▁hel	-505
▁pe	-506
▁turned	-507
▁cont	-508
▁life	-509
▁str	-510
▁told	-511
em	-512
ich	-513
▁ver	-514
▁word	-515
outh	-516
▁fin	-517
▁real	-518
▁anything	-519
▁last	-520
ia	-521
▁fing	-522
ling	-523
bb	-524
ned	-525
get	-526
ied	-527
▁put	-528
▁ton	-529
▁dar	-530
▁mouth	-531
ty	-532
**	-533
ged	-534
▁another	-535
▁hair	-536
▁sec	-537
ens	-538
▁while	-539
▁unt	-540
▁part	-541
een	-542
ves	-543
▁being	-544
ced	-545
▁wait	-546
▁per	-547
▁bel	-548
▁ad	-549
▁sur	-550
ple	-551
▁nothing	-552
ber	-553
▁came	-554
sh	-555
ise	-556
▁jo	-557
▁app	-558
▁until	-559
owed	-560
▁ph	-561
ook	-562
▁lea	-563
▁gra	-564
▁clos	-565
▁cou	-566
iend	-567
▁enough	-568
▁moment	-569
▁beh	-570
▁help	-571
xt	-572
ild	-573
▁went	-574
▁own	-575
▁exp	-576
ence	-577
eet	-578
ful	-579
▁sn	-580
▁res	-581
▁lips	-582
▁yes	-583
▁left	-584
▁heart	-585
ince	-586
▁side	-587
▁does	-588
▁mat	-589
igh	-590
hes	-591
▁arms	-592
▁find	-593
▁war	-594
ze	-595
ross	-596
ways	-597
ont	-598
▁mind	-599
ans	-600
ouse	-601
▁things	-602
▁keep	-603
▁wr	-604
▁woman	-605
▁very	-606
▁has	-607
▁maybe	-608
▁dr	-609
▁cur	-610
▁ple	-611
ching	-612
les	-613
ish	-614
ane	-615
▁gir	-616
▁behind	-617
▁inside	-618
▁smile	-619
▁everything	-620
▁though	-621
▁dec	-622
▁always	-623
▁few	-624
▁might	-625
▁ass	-626
▁year	-627
▁new	-628
ud	-629
cked	-630
▁z	-631
ner	-632
▁sound	-633
▁rel	-634
▁care	-635
▁cle	-636
▁both	-637
▁pulled	-638
up	-639
▁those	-640
▁tou	-641
ople	-642
▁inst	-643
▁give	-644
iled	-645
▁open	-646
▁people	-647
ions	-648
▁set	-649
▁which	-650
ween	-651
ught	-652
▁between	-653
▁without	-654
▁ear	-655
▁hold	-656
▁home	-657
av	-658
▁beg	-659
▁breath	-660
▁ok	-661
ped	-662
▁once	-663
▁oh	-664
▁sho	-665
▁saw	-666
▁next	-667
▁end	-668
▁dark	-669
▁house	-670
▁mother	-671
ating	-672
▁toward	-673
▁myself	-674
ness	-675
▁girl	-676
int	-677
▁since	-678
▁ent	-679
▁friend	-680
▁pa	-681
ared	-682
ool	-683
▁ke	-684
row	-685
▁dam	-686
▁trying	-687
▁okay	-688
▁better	-689
▁hur	-690
ost	-691
▁sit	-692
▁gi	-693
ren	-694
sw	-695
▁gave	-696
ower	-697
▁looking	-698
▁someone	-699
▁fam	-700
▁front	-701
▁act	-702
▁bit	-703
ream	-704
▁father	-705
▁most	-706
dded	-707
▁work	-708
▁himself	-709
ready	-710
▁herself	-711
▁rest	-712
▁answ	-713
▁already	-714
ian	-715
gether	-716
▁hop	-717
▁hell	-718
▁sat	-719
pping	-720
▁done	-721
▁place	-722
▁light	-723
▁words	-724
▁sil	-725
▁bu	-726
▁att	-727
lee	-728
▁stop	-729
rew	-730
▁same	-731
▁doing	-732
▁together	-733
▁run	-734
ually	-735
ier	-736
▁stand	-737
▁fingers	-738
ne	-739
orm	-740
▁started	-741
ord	-742
used	-743
▁ang	-744
▁-	-745
▁min	-746
▁lu	-747
▁mean	-748
ever	-749
▁imp	-750
▁whis	-751
ys	-752
▁chest	-753
ret	-754
ason	-755
▁stay	-756
▁feeling	-757
▁found	-758
▁soft	-759
▁bre	-760
▁reac	-761
▁ty	-762
▁else	-763
ably	-764
▁belie	-765
ail	-766
▁deep	-767
▁needed	-768
▁second	-769
▁pain	-770
less	-771
ax	-772
▁each	-773
pr	-774
▁sto	-775
ised	-776
▁pus	-777
▁dri	-778
▁god	-779
▁heard	-780
▁dro	-781
▁kind	-782
irt	-783
▁kill	-784
▁close	-785
▁ye	-786
ory	-787
most	-788
▁across	-789
▁hear	-790
▁spe	-791
▁tried	-792
▁ser	-793
▁leg	-794
ert	-795
rent	-796
▁dra	-797
pe	-798
▁mor	-799
ict	-800
aned	-801
ized	-802
▁years	-803
▁hun	-804
ix	-805
▁almost	-806
icked	-807
▁talk	-808
anc	-809
ange	-810
▁tight	-811
▁walked	-812
▁ret	-813
ured	-814
▁held	-815
▁wee	-816
ense	-817
▁flo	-818
▁sor	-819
umb	-820
▁wonder	-821
▁ra	-822
▁quick	-823
tered	-824
▁remem	-825
▁sex	-826
▁old	-827
gn	-828
ary	-829
▁dem	-830
ater	-831
to	-832
▁lot	-833
▁slow	-834
day	-835
▁bad	-836
inking	-837
▁phone	-838
▁far	-839
red	-840
▁minut	-841
▁leave	-842
▁big	-843
▁press	-844
so	-845
▁play	-846
▁shook	-847
leep	-848
ible	-849
▁whisper	-850
▁start	-851
ons	-852
co	-853
▁bea	-854
▁yeah	-855
▁seemed	-856
ib	-857
▁underst	-858
▁family	-859
▁getting	-860
▁moved	-861
▁ob	-862
ention	-863
▁ed	-864
▁ev	-865
▁making	-866
▁cour	-867
ash	-868
▁move	-869
▁small	-870
▁finally	-871
▁past	-872
▁skin	-873
▁hot	-874
▁blood	-875
ither	-876
ipped	-877
oy	-878
▁nodded	-879
▁bar	-880
▁yet	-881
▁hurt	-882
▁smiled	-883
▁ide	-884
▁sim	-885
▁ru	-886
▁pass	-887
▁stood	-888
ank	-889
ial	-890
▁black	-891
room	-892
▁table	-893
ully	-894
▁beaut	-895
▁gone	-896
amp	-897
▁col	-898
▁prob	-899
▁gaze	-900
ering	-901
▁eas	-902
▁bus	-903
▁quest	-904
▁neck	-905
▁mine	-906
▁sorry	-907
ently	-908
▁comp	-909
erson	-910
ately	-911
ows	-912
ten	-913
▁seen	-914
▁ap	-915
akes	-916
▁met	-917
▁bab	-918
▁feet	-919
▁miss	-920
▁dif	-921
▁da	-922
▁par	-923
▁expl	-924
bbed	-925
▁cor	-926
▁probably	-927
▁mon	-928
▁hum	-929
▁sig	-930
aced	-931
▁brother	-932
ph	-933
iv	-934
ished	-935
▁lau	-936
▁three	-937
▁taking	-938
▁floor	-939
▁fall	-940
ected	-941
fect	-942
▁grin	-943
▁aw	-944
▁cons	-945
▁world	-946
▁cra	-947
▁wall	-948
▁best	-949
▁wind	-950
▁tra	-951
▁squ	-952
▁hour	-953
▁believe	-954
▁anyone	-955
▁idea	-956
▁dad	-957
▁surpr	-958
che	-959
aring	-960
ars	-961
▁conf	-962
▁reached	-963
▁supp	-964
iet	-965
▁stra	-966
▁foll	-967
▁laugh	-968
▁fact	-969
▁men	-970
▁ben	-971
▁inc	-972
▁meet	-973
▁soon	-974
ained	-975
iness	-976
▁resp	-977
▁air	-978
ined	-979
▁poss	-980
owing	-981
▁near	-982
ton	-983
▁least	-984
▁says	-985
iously	-986
▁chee	-987
▁dress	-988
▁coming	-989
▁ask	-990
ips	-991
▁happened	-992
▁acc	-993
▁thro	-994
iver	-995
▁reason	-996
▁name	-997
▁na	-998
▁called	-999
▁lif	-1000
▁fore	-1001
▁char	-1002
▁shoulder	-1003
▁hu	-1004
▁bro	-1005
▁person	-1006
▁later	-1007
▁sleep	-1008
ging	-1009
▁stopped	-1010
▁inv	-1011
▁must	-1012
na	-1013
▁opened	-1014
▁shit	-1015
▁having	-1016
▁bes	-1017
▁kept	-1018
here	-1019
▁wrong	-1020
ister	-1021
▁morning	-1022
▁half	-1023
ead	-1024
▁also	-1025
▁del	-1026
ying	-1027
▁touch	-1028
▁hit	-1029
▁dist	-1030
▁es	-1031
▁course	-1032
▁roll	-1033
ening	-1034
▁alone	-1035
arent	-1036
▁matter	-1037
ual	-1038
▁legs	-1039
▁comple	-1040
▁thinking	-1041
▁everyone	-1042
ger	-1043
▁tre	-1044
▁eye	-1045
▁understand	-1046
▁jack	-1047
▁cut	-1048
▁guy	-1049
cking	-1050
▁exc	-1051
▁closed	-1052
▁child	-1053
lo	-1054
▁reg	-1055
▁used	-1056
▁such	-1057
▁many	-1058
dden	-1059
ult	-1060
ief	-1061
▁along	-1062
▁mus	-1063
cept	-1064
▁prom	-1065
▁slid	-1066
▁return	-1067
▁great	-1068
▁fine	-1069
gue	-1070
▁sudden	-1071
▁laug	-1072
▁laughed	-1073
ided	-1074
▁remember	-1075
▁stu	-1076
iful	-1077
eth	-1078
▁ready	-1079
aw	-1080
ugged	-1081
idd	-1082
vel	-1083
▁damn	-1084
aken	-1085
▁instead	-1086
▁plan	-1087
▁whispered	-1088
▁sweet	-1089
ms	-1090
▁red	-1091
▁its	-1092
▁top	-1093
▁talking	-1094
▁perfect	-1095
▁watched	-1096
▁please	-1097
▁forward	-1098
oney	-1099
ize	-1100
▁ran	-1101
▁pret	-1102
▁baby	-1103
▁happy	-1104
▁bec	-1105
▁able	-1106
fully	-1107
▁warm	-1108
▁cover	-1109
mit	-1110
▁diffe	-1111
▁beautiful	-1112
▁shr	-1113
▁pleas	-1114
▁fight	-1115
▁point	-1116
▁dou	-1117
ny	-1118
▁clear	-1119
▁mag	-1120
▁throat	-1121
ors	-1122
▁onto	-1123
▁water	-1124
▁list	-1125
▁actually	-1126
▁loved	-1127
ction	-1128
▁exact	-1129
▁either	-1130
▁stared	-1131
ere	-1132
ub	-1133
▁meant	-1134
▁ins	-1135
▁high	-1136
ike	-1137
▁prot	-1138
▁tonight	-1139
▁answer	-1140
ha	-1141
▁thank	-1142
▁these	-1143
▁wra	-1144
▁cal	-1145
der	-1146
▁complete	-1147
▁leaned	-1148
▁pretty	-1149
▁slowly	-1150
▁gre	-1151
ition	-1152
▁question	-1153
▁cat	-1154
▁bare	-1155
anced	-1156
▁contin	-1157
ically	-1158
ings	-1159
▁days	-1160
▁fre	-1161
▁ref	-1162
gan	-1163
▁conc	-1164
▁quiet	-1165
uth	-1166
▁full	-1167
▁low	-1168
▁caught	-1169
▁whole	-1170
▁lay	-1171
ush	-1172
▁fig	-1173
head	-1174
▁ma	-1175
▁fun	-1176
▁break	-1177
▁kit	-1178
▁sister	-1179
▁fill	-1180
▁realized	-1181
▁minutes	-1182
▁ter	-1183
▁mr	-1184
▁inter	-1185
▁zane	-1186
▁show	-1187
▁ago	-1188
▁guess	-1189
▁quickly	-1190
airs	-1191
fort	-1192
ife	-1193
▁hope	-1194
▁shif	-1195
ertain	-1196
▁lost	-1197
ical	-1198
by	-1199
▁kissed	-1200
zy	-1201
▁sens	-1202
▁glass	-1203
▁boy	-1204
son	-1205
ression	-1206
ci	-1207
▁exactly	-1208
mor	-1209
▁shoulders	-1210
▁began	-1211
▁standing	-1212
▁whatever	-1213
▁deal	-1214
▁dire	-1215
▁hor	-1216
ides	-1217
▁kid	-1218
▁pat	-1219
osed	-1220
▁def	-1221
▁ele	-1222
ued	-1223
app	-1224
▁inf	-1225
▁step	-1226
▁waiting	-1227
▁pur	-1228
▁straight	-1229
▁times	-1230
▁det	-1231
ins	-1232
▁unc	-1233
mm	-1234
no	-1235
▁fire	-1236
where	-1237
▁coll	-1238
▁walk	-1239
▁white	-1240
▁nice	-1241
▁fur	-1242
▁fear	-1243
▁different	-1244
og	-1245
▁imag	-1246
cus	-1247
▁entire	-1248
▁bur	-1249
▁trust	-1250
▁stom	-1251
▁hall	-1252
▁har	-1253
▁free	-1254
▁dead	-1255
▁thr	-1256
▁mur	-1257
▁lou	-1258
▁sun	-1259
la	-1260
▁cold	-1261
▁fell	-1262
▁friends	-1263
▁din	-1264
▁holding	-1265
▁je	-1266
▁taken	-1267
ply	-1268
▁shut	-1269
▁tongue	-1270
▁spo	-1271
▁mad	-1272
ump	-1273
▁power	-1274
▁read	-1275
▁watching	-1276
ored	-1277
▁bra	-1278
zed	-1279
▁lifted	-1280
▁business	-1281
ushed	-1282
▁pant	-1283
iling	-1284
▁contro	-1285
▁chap	-1286
nding	-1287
▁job	-1288
▁blue	-1289
▁grabbed	-1290
▁closer	-1291
bo	-1292
vers	-1293
cy	-1294
▁shot	-1295
▁bot	-1296
▁strong	-1297
ughter	-1298
▁seat	-1299
▁month	-1300
▁suddenly	-1301
▁clot	-1302
▁er	-1303
▁hers	-1304
br	-1305
chen	-1306
▁vis	-1307
▁repl	-1308
▁mess	-1309
ming	-1310
▁apart	-1311
▁short	-1312
ken	-1313
▁chapter	-1314
uring	-1315
▁bring	-1316
▁looks	-1317
▁*	-1318
▁pushed	-1319
▁shirt	-1320
rought	-1321
apped	-1322
▁kitchen	-1323
▁sch	-1324
▁fe	-1325
▁women	-1326
▁tears	-1327
▁chance	-1328
enty	-1329
▁outside	-1330
▁consid	-1331
cc	-1332
▁disapp	-1333
ired	-1334
▁rec	-1335
▁sense	-1336
▁attention	-1337
▁truth	-1338
▁four	-1339
▁stomach	-1340
▁watch	-1341
▁brought	-1342
▁tri	-1343
▁glanced	-1344
▁today	-1345
▁bell	-1346
▁dream	-1347
▁hours	-1348
▁cry	-1349
ung	-1350
▁ni	-1351
ru	-1352
anged	-1353
▁true	-1354
▁chair	-1355
ited	-1356
▁stepped	-1357
read	-1358
▁win	-1359
acked	-1360
▁saying	-1361
▁ign	-1362
▁money	-1363
▁cheek	-1364
▁expression	-1365
▁jul	-1366
▁vi	-1367
ures	-1368
▁mut	-1369
oun	-1370
▁sitting	-1371
▁obv	-1372
▁dropped	-1373
otion	-1374
erest	-1375
inted	-1376
ased	-1377
▁av	-1378
ina	-1379
▁vamp	-1380
isted	-1381
▁finger	-1382
▁office	-1383
▁gro	-1384
▁ground	-1385
▁given	-1386
▁fa	-1387
▁leaving	-1388
▁frown	-1389
▁change	-1390
▁giving	-1391
▁knowing	-1392
▁gri	-1393
▁completely	-1394
▁use	-1395
▁living	-1396
▁parent	-1397
▁beside	-1398
▁burn	-1399
▁less	-1400
▁cla	-1401
▁certain	-1402
▁control	-1403
ters	-1404
▁sent	-1405
arr	-1406
▁interest	-1407
ison	-1408
▁known	-1409
▁sky	-1410
▁longer	-1411
the	-1412
▁stro	-1413
▁vampire	-1414
aged	-1415
▁coun	-1416
▁moving	-1417
▁hon	-1418
▁school	-1419
ations	-1420
▁pressed	-1421
▁sever	-1422
▁comm	-1423
▁dev	-1424
▁youn	-1425
anger	-1426
antly	-1427
ets	-1428
▁smo	-1429
ially	-1430
inc	-1431
zing	-1432
▁line	-1433
▁pal	-1434
ents	-1435
nded	-1436
▁scream	-1437
▁rose	-1438
gg	-1439
▁running	-1440
▁cam	-1441
▁proble	-1442
▁sam	-1443
▁sy	-1444
▁five	-1445
▁seeing	-1446
▁slight	-1447
▁bag	-1448
▁worry	-1449
▁ann	-1450
▁dan	-1451
▁doub	-1452
▁son	-1453
▁foot	-1454
ship	-1455
▁chr	-1456
ird	-1457
iding	-1458
orn	-1459
▁pres	-1460
▁safe	-1461
▁land	-1462
▁appear	-1463
▁parents	-1464
▁gas	-1465
▁week	-1466
more	-1467
ma	-1468
▁decided	-1469
▁live	-1470
joy	-1471
▁lar	-1472
▁cross	-1473
▁teeth	-1474
▁liked	-1475
▁enjoy	-1476
▁mist	-1477
▁pict	-1478
ock	-1479
▁clothes	-1480
▁grand	-1481
▁add	-1482
▁remind	-1483
▁bene	-1484
▁tor	-1485
▁swe	-1486
▁fast	-1487
▁working	-1488
▁lear	-1489
▁tem	-1490
ees	-1491
▁admit	-1492
iced	-1493
▁build	-1494
▁grow	-1495
▁cir	-1496
▁forg	-1497
ien	-1498
▁ale	-1499
▁pay	-1500
▁pleasure	-1501
▁ind	-1502
iff	-1503
▁rolled	-1504
action	-1505
▁heav	-1506
▁human	-1507
▁ner	-1508
▁window	-1509
▁yourself	-1510
▁mir	-1511
iny	-1512
▁pol	-1513
▁musc	-1514
▁stre	-1515
▁supposed	-1516
▁thanks	-1517
▁pie	-1518
▁telling	-1519
▁luck	-1520
▁followed	-1521
▁sing	-1522
ashed	-1523
▁sub	-1524
▁ian	-1525
▁abs	-1526
▁hung	-1527
▁anyway	-1528
▁pri	-1529
▁makes	-1530
▁happen	-1531
▁death	-1532
▁dinner	-1533
▁coff	-1534
ought	-1535
▁jer	-1536
▁bedroom	-1537
ery	-1538
▁six	-1539
▁sighed	-1540
▁drink	-1541
acing	-1542
▁ir	-1543
▁several	-1544
▁ten	-1545
▁speak	-1546
unt	-1547
▁bath	-1548
▁wife	-1549
ches	-1550
▁hips	-1551
umped	-1552
▁stup	-1553
▁lip	-1554
▁couple	-1555
▁pulling	-1556
ames	-1557
▁waist	-1558
ular	-1559
ount	-1560
▁barely	-1561
▁convers	-1562
ove	-1563
▁exper	-1564
▁draw	-1565
aster	-1566
▁softly	-1567
▁hang	-1568
▁circ	-1569
sed	-1570
ility	-1571
man	-1572
▁staring	-1573
▁eff	-1574
▁drive	-1575
raid	-1576
▁coffee	-1577
ject	-1578
unch	-1579
ime	-1580
▁appro	-1581
▁stupid	-1582
▁ve	-1583
▁protect	-1584
▁silence	-1585
▁shrugged	-1586
▁ta	-1587
▁du	-1588
▁continued	-1589
ror	-1590
▁wrapped	-1591
▁case	-1592
▁easy	-1593
ley	-1594
▁late	-1595
▁christ	-1596
gth	-1597
▁wide	-1598
▁knees	-1599
▁demand	-1600
ute	-1601
▁afraid	-1602
mb	-1603
▁filled	-1604
▁thoughts	-1605
▁town	-1606
▁secret	-1607
▁edge	-1608
▁sus	-1609
lan	-1610
▁shar	-1611
▁sign	-1612
▁ris	-1613
▁tone	-1614
▁anymore	-1615
▁desk	-1616
▁nearly	-1617
▁months	-1618
▁touched	-1619
medi	-1620
▁worked	-1621
▁immedi	-1622
let	-1623
▁reco	-1624
sing	-1625
▁twenty	-1626
▁squee	-1627
▁quite	-1628
▁rather	-1629
▁bat	-1630
▁sort	-1631
ilt	-1632
hel	-1633
els	-1634
▁picked	-1635
▁rock	-1636
▁norm	-1637
▁guys	-1638
▁die	-1639
▁heat	-1640
▁nat	-1641
ates	-1642
▁answered	-1643
its	-1644
▁surprised	-1645
bed	-1646
▁pos	-1647
pec	-1648
▁smell	-1649
▁turning	-1650
▁wearing	-1651
▁lean	-1652
▁beneath	-1653
▁raised	-1654
▁young	-1655
▁hus	-1656
▁walking	-1657
▁begin	-1658
▁swall	-1659
▁jaw	-1660
▁spec	-1661
▁conn	-1662
▁ball	-1663
▁lead	-1664
▁rele	-1665
▁girls	-1666
▁cent	-1667
▁minute	-1668
▁stuff	-1669
▁box	-1670
als	-1671
▁conversation	-1672
▁gently	-1673
▁corner	-1674
itely	-1675
▁eng	-1676
▁pick	-1677
▁gen	-1678
ces	-1679
▁hes	-1680
icking	-1681
▁changed	-1682
▁ce	-1683
▁forget	-1684
▁rep	-1685
ugg	-1686
▁hey	-1687
▁large	-1688
▁except	-1689
▁eat	-1690
▁waited	-1691
aces	-1692
▁sal	-1693
▁weeks	-1694
▁thigh	-1695
io	-1696
▁drag	-1697
▁bright	-1698
▁den	-1699
▁spoke	-1700
▁danger	-1701
ky	-1702
▁immediately	-1703
irty	-1704
ience	-1705
▁relation	-1706
ony	-1707
▁wet	-1708
▁thick	-1709
▁crazy	-1710
ances	-1711
▁spot	-1712
▁surprise	-1713
tem	-1714
▁loud	-1715
▁throw	-1716
▁doubt	-1717
▁sigh	-1718
▁chin	-1719
▁sad	-1720
▁seem	-1721
▁wed	-1722
▁possible	-1723
bbing	-1724
▁replied	-1725
▁others	-1726
▁ext	-1727
▁grinned	-1728
▁problem	-1729
iles	-1730
▁conv	-1731
band	-1732
▁spent	-1733
how	-1734
▁fuck	-1735
▁shad	-1736
▁figure	-1737
▁returned	-1738
ping	-1739
▁simply	-1740
ator	-1741
▁ell	-1742
▁guard	-1743
▁form	-1744
ding	-1745
▁anger	-1746
pecially	-1747
old	-1748
imes	-1749
▁sounded	-1750
▁ash	-1751
▁cool	-1752
▁gar	-1753
▁cho	-1754
▁tomor	-1755
▁demon	-1756
▁tomorrow	-1757
▁ring	-1758
▁murm	-1759
▁trou	-1760
▁promise	-1761
▁concer	-1762
amed	-1763
▁sel	-1764
aled	-1765
ara	-1766
▁hesit	-1767
▁married	-1768
▁fu	-1769
▁gotten	-1770
ili	-1771
any	-1772
▁defin	-1773
ident	-1774
iew	-1775
▁finished	-1776
▁count	-1777
▁passed	-1778
▁nose	-1779
▁bott	-1780
▁letting	-1781
▁food	-1782
ield	-1783
umbled	-1784
▁id	-1785
riend	-1786
▁empt	-1787
▁max	-1788
▁muttered	-1789
▁beat	-1790
iel	-1791
light	-1792
▁relax	-1793
▁sight	-1794
▁tast	-1795
▁opp	-1796
iddle	-1797
▁sear	-1798
▁yell	-1799
▁especially	-1800
▁angry	-1801
▁clim	-1802
▁bathroom	-1803
▁import	-1804
▁nick	-1805
▁coo	-1806
▁worried	-1807
▁worse	-1808
▁desper	-1809
ale	-1810
▁pan	-1811
▁crow	-1812
▁desire	-1813
▁knows	-1814
▁calm	-1815
▁gun	-1816
▁logan	-1817
▁hate	-1818
▁green	-1819
▁wants	-1820
▁middle	-1821
▁broke	-1822
▁slightly	-1823
aining	-1824
▁wish	-1825
ift	-1826
▁lie	-1827
▁arri	-1828
▁tiny	-1829
▁earl	-1830
▁serious	-1831
▁above	-1832
▁forced	-1833
▁glad	-1834
▁mention	-1835
▁stud	-1836
▁pock	-1837
rif	-1838
▁ur	-1839
uff	-1840
▁noticed	-1841
▁shout	-1842
oul	-1843
▁become	-1844
▁daughter	-1845
▁snapped	-1846
▁king	-1847
▁toss	-1848
ric	-1849
ctor	-1850
my	-1851
ists	-1852
▁kids	-1853
▁heavy	-1854
▁situ	-1855
▁reach	-1856
▁stri	-1857
ots	-1858
▁fem	-1859
haps	-1860
▁gold	-1861
▁fav	-1862
▁bother	-1863
▁honest	-1864
▁jake	-1865
▁vict	-1866
▁obviously	-1867
▁wild	-1868
▁desp	-1869
ines	-1870
▁cheeks	-1871
▁susp	-1872
ones	-1873
▁expected	-1874
▁wanting	-1875
ively	-1876
▁jen	-1877
▁stare	-1878
ision	-1879
▁party	-1880
▁gent	-1881
▁comfort	-1882
oring	-1883
ails	-1884
▁killed	-1885
▁perhaps	-1886
▁threw	-1887
▁threat	-1888
cing	-1889
▁meeting	-1890
land	-1891
▁relationship	-1892
▁check	-1893
▁somehow	-1894
zz	-1895
▁wondered	-1896
itch	-1897
▁apartment	-1898
▁ama	-1899
▁covered	-1900
▁headed	-1901
▁luke	-1902
▁clean	-1903
▁drew	-1904
umber	-1905
▁wood	-1906
▁shaking	-1907
▁hated	-1908
wh	-1909
▁tot	-1910
▁disappear	-1911
ign	-1912
▁steps	-1913
▁definitely	-1914
▁self	-1915
▁sometimes	-1916
▁priv	-1917
▁sett	-1918
▁during	-1919
▁building	-1920
▁grace	-1921
▁mem	-1922
▁chuck	-1923
ney	-1924
▁news	-1925
▁adv	-1926
▁clearly	-1927
▁hunter	-1928
aded	-1929
ibly	-1930
▁managed	-1931
▁esca	-1932
▁nod	-1933
bered	-1934
▁jeans	-1935
▁spread	-1936
kes	-1937
▁pun	-1938
▁pointed	-1939
ues	-1940
igg	-1941
▁creat	-1942
▁husband	-1943
▁single	-1944
▁sol	-1945
teen	-1946
▁died	-1947
▁crowd	-1948
▁frowned	-1949
▁seconds	-1950
▁rid	-1951
▁empty	-1952
lt	-1953
lyn	-1954
▁important	-1955
ker	-1956
▁force	-1957
▁shower	-1958
vous	-1959
▁fair	-1960
▁street	-1961
sy	-1962
▁dom	-1963
▁sof	-1964
▁sounds	-1965
though	-1966
▁none	-1967
aint	-1968
▁bottom	-1969
att	-1970
▁class	-1971
▁val	-1972
▁added	-1973
olog	-1974
▁laughing	-1975
▁led	-1976
▁lose	-1977
▁fut	-1978
▁occ	-1979
▁game	-1980
▁stret	-1981
▁strange	-1982
▁lying	-1983
▁cock	-1984
ments	-1985
▁sick	-1986
▁ord	-1987
▁children	-1988
▁eyeb	-1989
sel	-1990
asm	-1991
▁deser	-1992
▁summ	-1993
ient	-1994
▁cas	-1995
▁road	-1996
▁ry	-1997
ipping	-1998
▁smiling	-1999
rian	-2000
▁dest	-2001
▁dog	-2002
▁scr	-2003
▁respond	-2004
▁willing	-2005
▁lim	-2006
bs	-2007
▁paused	-2008
▁keeping	-2009
▁glance	-2010
oss	-2011
▁situation	-2012
tic	-2013
unk	-2014
▁pen	-2015
▁cab	-2016
▁gray	-2017
▁slam	-2018
▁pet	-2019
▁gentle	-2020
▁dep	-2021
cess	-2022
▁favor	-2023
▁book	-2024
▁takes	-2025
▁remembered	-2026
▁realize	-2027
ndred	-2028
▁firm	-2029
ities	-2030
▁repe	-2031
▁number	-2032
▁hoping	-2033
▁means	-2034
▁broken	-2035
▁direction	-2036
▁within	-2037
ining	-2038
▁pack	-2039
▁scent	-2040
▁naked	-2041
▁sharp	-2042
▁lower	-2043
▁pract	-2044
but	-2045
▁although	-2046
▁silent	-2047
▁story	-2048
▁catch	-2049
▁soul	-2050
▁explain	-2051
erg	-2052
pted	-2053
▁order	-2054
▁clen	-2055
▁asking	-2056
iting	-2057
▁eyebrow	-2058
▁kno	-2059
▁ble	-2060
ster	-2061
▁couch	-2062
pit	-2063
▁alex	-2064
▁quietly	-2065
▁cell	-2066
▁wedding	-2067
▁choice	-2068
res	-2069
▁worth	-2070
▁emotion	-2071
▁prete	-2072
▁stairs	-2073
▁spr	-2074
sts	-2075
▁besides	-2076
▁fit	-2077
ann	-2078
▁huge	-2079
asing	-2080
▁suit	-2081
▁space	-2082
▁weak	-2083
▁trent	-2084
inked	-2085
ising	-2086
esh	-2087
me	-2088
▁mis	-2089
▁tall	-2090
▁playing	-2091
▁und	-2092
od	-2093
▁hide	-2094
udd	-2095
▁inform	-2096
ager	-2097
▁pants	-2098
▁comes	-2099
▁compl	-2100
▁counter	-2101
▁mark	-2102
▁trouble	-2103
▁dav	-2104
▁hundred	-2105
▁forever	-2106
▁taste	-2107
▁nervous	-2108
▁missed	-2109
ler	-2110
ude	-2111
using	-2112
▁earlier	-2113
▁sexy	-2114
abell	-2115
reed	-2116
ork	-2117
erm	-2118
▁thumb	-2119
orted	-2120
▁expect	-2121
oming	-2122
▁wid	-2123
▁recogn	-2124
▁eight	-2125
▁forgot	-2126
▁locked	-2127
▁future	-2128
aling	-2129
▁position	-2130
body	-2131
ressed	-2132
▁mer	-2133
▁imagine	-2134
ices	-2135
▁daniel	-2136
▁paper	-2137
▁slipped	-2138
▁cond	-2139
▁date	-2140
▁cup	-2141
set	-2142
▁emb	-2143
▁push	-2144
▁piece	-2145
▁reve	-2146
▁forehead	-2147
▁pound	-2148
cious	-2149
vered	-2150
▁breathing	-2151
▁tow	-2152
▁strugg	-2153
lly	-2154
cent	-2155
uct	-2156
▁gage	-2157
▁murmured	-2158
▁picture	-2159
▁handle	-2160
ination	-2161
▁lucky	-2162
orge	-2163
ecting	-2164
▁brain	-2165
ract	-2166
▁listen	-2167
▁ow	-2168
▁sugg	-2169
▁pill	-2170
▁tens	-2171
ishing	-2172
▁state	-2173
▁somewhere	-2174
▁doors	-2175
▁sar	-2176
▁however	-2177
▁prep	-2178
▁placed	-2179
▁magic	-2180
▁tired	-2181
ancing	-2182
▁alive	-2183
▁lady	-2184
▁scared	-2185
▁crossed	-2186
ustr	-2187
▁shock	-2188
▁event	-2189
▁piss	-2190
▁brief	-2191
▁questions	-2192
▁camer	-2193
▁lap	-2194
▁agree	-2195
▁fif	-2196
▁flat	-2197
▁fold	-2198
▁became	-2199
▁colt	-2200
▁harder	-2201
▁normal	-2202
▁brown	-2203
▁truck	-2204
▁hoped	-2205
ior	-2206
isf	-2207
▁lock	-2208
achel	-2209
▁agreed	-2210
▁shifted	-2211
▁jumped	-2212
▁pocket	-2213
like	-2214
▁city	-2215
▁shake	-2216
▁early	-2217
▁talked	-2218
▁direct	-2219
▁stone	-2220
ls	-2221
▁kissing	-2222
▁sle	-2223
▁spend	-2224
▁relief	-2225
▁focus	-2226
ey	-2227
▁blank	-2228
izing	-2229
▁shiver	-2230
▁spl	-2231
▁despite	-2232
▁save	-2233
▁appre	-2234
▁pin	-2235
▁invol	-2236
▁assum	-2237
▁fix	-2238
▁wondering	-2239
ards	-2240
rit	-2241
▁whether	-2242
▁capt	-2243
illed	-2244
▁dressed	-2245
▁carry	-2246
▁noah	-2247
▁trans	-2248
▁company	-2249
▁prof	-2250
▁needs	-2251
▁david	-2252
owers	-2253
▁fle	-2254
iliar	-2255
olute	-2256
ached	-2257
▁determ	-2258
▁med	-2259
loe	-2260
gr	-2261
▁marry	-2262
▁weight	-2263
iam	-2264
▁stren	-2265
riage	-2266
▁boo	-2267
▁aff	-2268
usted	-2269
▁dry	-2270
▁color	-2271
acy	-2272
▁chloe	-2273
ask	-2274
▁blond	-2275
▁appeared	-2276
▁incl	-2277
ark	-2278
pper	-2279
tering	-2280
yond	-2281
▁lived	-2282
abeth	-2283
ession	-2284
▁putting	-2285
▁pair	-2286
▁beyond	-2287
▁eliz	-2288
fer	-2289
▁evening	-2290
for	-2291
▁blinked	-2292
col	-2293
ushing	-2294
▁pu	-2295
▁feelings	-2296
stairs	-2297
▁charl	-2298
▁muscles	-2299
▁avo	-2300
▁bent	-2301
▁ones	-2302
vy	-2303
rible	-2304
▁wel	-2305
▁art	-2306
ulous	-2307
▁seriously	-2308
▁offered	-2309
▁satisf	-2310
▁isabell	-2311
▁follow	-2312
▁wip	-2313
tern	-2314
▁hug	-2315
▁tu	-2316
▁tru	-2317
▁bull	-2318
▁stayed	-2319
▁swallowed	-2320
▁lord	-2321
▁gon	-2322
▁julian	-2323
▁soph	-2324
▁memory	-2325
▁busy	-2326
▁offer	-2327
▁easily	-2328
imed	-2329
▁sweat	-2330
▁breast	-2331
▁fly	-2332
▁cried	-2333
aked	-2334
▁settled	-2335
▁information	-2336
▁demanded	-2337
▁allowed	-2338
▁seems	-2339
otions	-2340
▁sand	-2341
▁enc	-2342
▁odd	-2343
▁club	-2344
▁const	-2345
▁delic	-2346
▁thrust	-2347
▁aside	-2348
▁distance	-2349
▁chase	-2350
▁view	-2351
sion	-2352
▁round	-2353
▁mike	-2354
oof	-2355
▁apparent	-2356
▁hea	-2357
▁pul	-2358
inn	-2359
▁frustr	-2360
▁thighs	-2361
▁shoved	-2362
▁rom	-2363
▁absolute	-2364
come	-2365
▁figured	-2366
ested	-2367
que	-2368
▁showed	-2369
▁send	-2370
▁wine	-2371
▁nor	-2372
▁treat	-2373
▁aware	-2374
▁using	-2375
▁grip	-2376
▁dee	-2377
▁cast	-2378
▁kat	-2379
▁matt	-2380
▁afterno	-2381
▁angel	-2382
▁memor	-2383
▁strength	-2384
inct	-2385
rence	-2386
▁ahead	-2387
▁cu	-2388
onse	-2389
▁gather	-2390
▁contact	-2391
▁yours	-2392
▁dance	-2393
▁pregn	-2394
▁ill	-2395
▁falling	-2396
▁ol	-2397
▁neither	-2398
▁drop	-2399
▁personal	-2400
▁handed	-2401
arrass	-2402
▁kisses	-2403
▁amazing	-2404
▁pink	-2405
▁helped	-2406
▁embarrass	-2407
▁attem	-2408
▁effort	-2409
▁phot	-2410
▁flesh	-2411
▁clay	-2412
▁walls	-2413
▁jace	-2414
▁ended	-2415
▁afternoon	-2416
▁share	-2417
▁response	-2418
▁nic	-2419
▁discus	-2420
▁lex	-2421
▁center	-2422
ains	-2423
pital	-2424
▁male	-2425
▁mirror	-2426
▁usually	-2427
▁wound	-2428
usion	-2429
vie	-2430
▁special	-2431
▁brand	-2432
▁twisted	-2433
▁mrs	-2434
▁ride	-2435
▁palm	-2436
▁further	-2437
▁appreci	-2438
▁fighting	-2439
▁gab	-2440
rac	-2441
selves	-2442
▁rich	-2443
▁pushing	-2444
▁beginning	-2445
▁gasped	-2446
▁rachel	-2447
▁elizabeth	-2448
▁law	-2449
▁rubbed	-2450
▁van	-2451
▁cre	-2452
▁grim	-2453
▁belong	-2454
▁smooth	-2455
▁calling	-2456
▁wear	-2457
▁shoot	-2458
▁wore	-2459
▁grou	-2460
▁music	-2461
▁area	-2462
▁silver	-2463
ants	-2464
▁weird	-2465
▁surround	-2466
▁grew	-2467
▁truly	-2468
▁bottle	-2469
ific	-2470
▁pour	-2471
cted	-2472
▁sleeping	-2473
ection	-2474
ises	-2475
▁note	-2476
ierce	-2477
▁dangerous	-2478
rie	-2479
▁regret	-2480
idence	-2481
▁summer	-2482
▁touching	-2483
than	-2484
▁hos	-2485
▁phys	-2486
▁reminded	-2487
iot	-2488
▁learned	-2489
ene	-2490
▁ears	-2491
lic	-2492
▁starting	-2493
▁une	-2494
▁understood	-2495
▁often	-2496
▁bill	-2497
▁leaning	-2498
▁blake	-2499
▁carefully	-2500
ative	-2501
▁tightened	-2502
▁path	-2503
▁laughter	-2504
▁bal	-2505
▁luis	-2506
▁jerked	-2507
▁loc	-2508
▁victor	-2509
▁dim	-2510
▁funny	-2511
vin	-2512
▁rough	-2513
▁boys	-2514
▁notice	-2515
▁scre	-2516
▁older	-2517
▁certainly	-2518
▁sucked	-2519
▁fro	-2520
▁mia	-2521
▁familiar	-2522
▁ice	-2523
▁test	-2524
▁asks	-2525
▁female	-2526
fic	-2527
▁bitch	-2528
▁arrived	-2529
▁bow	-2530
▁private	-2531
▁attack	-2532
▁simple	-2533
miss	-2534
▁cop	-2535
▁jos	-2536
▁stiff	-2537
▁curled	-2538
sand	-2539
▁narr	-2540
▁gets	-2541
▁command	-2542
▁gest	-2543
▁lives	-2544
▁band	-2545
▁store	-2546
▁bir	-2547
▁burst	-2548
▁jud	-2549
▁grab	-2550
▁requ	-2551
▁godd	-2552
▁mass	-2553
▁breathe	-2554
▁brushed	-2555
▁incred	-2556
▁track	-2557
▁feels	-2558
shirt	-2559
▁beauty	-2560
go	-2561
▁scar	-2562
gu	-2563
▁elb	-2564
▁wake	-2565
▁pale	-2566
▁narrowed	-2567
arth	-2568
▁laid	-2569
▁fool	-2570
astic	-2571
▁upon	-2572
▁totally	-2573
▁hotel	-2574
▁hospital	-2575
do	-2576
▁mid	-2577
▁opening	-2578
▁thousand	-2579
▁instantly	-2580
▁sav	-2581
▁squeezed	-2582
kin	-2583
ages	-2584
▁ren	-2585
▁bite	-2586
asted	-2587
▁honey	-2588
▁stuck	-2589
▁pot	-2590
▁obvious	-2591
du	-2592
fast	-2593
▁groaned	-2594
▁rain	-2595
▁ky	-2596
▁accept	-2597
▁wished	-2598
▁fresh	-2599
▁apparently	-2600
ape	-2601
▁sty	-2602
▁lights	-2603
▁thin	-2604
▁bod	-2605
▁repeated	-2606
ote	-2607
▁emma	-2608
▁mill	-2609
▁imposs	-2610
itive	-2611
▁serv	-2612
▁jump	-2613
▁remained	-2614
▁ge	-2615
ayed	-2616
▁reaction	-2617
▁darkness	-2618
▁jax	-2619
▁drove	-2620
▁apolog	-2621
▁mel	-2622
▁disco	-2623
▁inte	-2624
▁explained	-2625
▁bast	-2626
▁surv	-2627
▁hanging	-2628
▁level	-2629
rupt	-2630
▁suck	-2631
▁jon	-2632
▁beth	-2633
alth	-2634
▁shoes	-2635
▁police	-2636
▁clenched	-2637
▁ethan	-2638
▁disappo	-2639
▁considered	-2640
▁marriage	-2641
▁disc	-2642
▁anywhere	-2643
▁suff	-2644
▁happening	-2645
▁tossed	-2646
▁asleep	-2647
▁diffic	-2648
▁interested	-2649
▁unable	-2650
▁partic	-2651
▁gorge	-2652
▁stun	-2653
▁emotions	-2654
roy	-2655
▁mood	-2656
▁birth	-2657
gie	-2658
▁promised	-2659
▁intim	-2660
▁finding	-2661
friend	-2662
oe	-2663
▁thirty	-2664
▁motion	-2665
▁perfectly	-2666
▁magn	-2667
cho	-2668
▁growled	-2669
▁unless	-2670
▁ut	-2671
▁key	-2672
ald	-2673
▁finish	-2674
▁moments	-2675
▁swear	-2676
▁lunch	-2677
▁gorgeous	-2678
ope	-2679
▁visit	-2680
▁dig	-2681
▁leather	-2682
▁tremb	-2683
ka	-2684
▁anim	-2685
▁feat	-2686
▁storm	-2687
▁hallway	-2688
▁study	-2689
idden	-2690
▁inno	-2691
▁uh	-2692
▁shouted	-2693
▁ignored	-2694
▁likely	-2695
cused	-2696
rid	-2697
▁brothers	-2698
aff	-2699
▁lowered	-2700
▁ways	-2701
▁excuse	-2702
▁ah	-2703
▁domin	-2704
▁group	-2705
par	-2706
▁buy	-2707
▁len	-2708
▁warning	-2709
▁reaching	-2710
▁ava	-2711
nds	-2712
▁careful	-2713
▁crying	-2714
▁towards	-2715
▁jase	-2716
▁usual	-2717
ries	-2718
▁fucking	-2719
▁liam	-2720
▁speaking	-2721
▁rush	-2722
▁deeper	-2723
▁cleared	-2724
▁gener	-2725
▁crack	-2726
▁turns	-2727
yn	-2728
▁mate	-2729
▁allow	-2730
▁entered	-2731
▁adam	-2732
▁pub	-2733
▁passion	-2734
▁uncle	-2735
▁decision	-2736
▁stick	-2737
▁memories	-2738
ashing	-2739
▁pulls	-2740
▁losing	-2741
▁gut	-2742
▁believed	-2743
▁pissed	-2744
▁powerful	-2745
▁simon	-2746
▁iss	-2747
▁weeke	-2748
▁proper	-2749
▁disappeared	-2750
▁driving	-2751
urity	-2752
▁experience	-2753
▁imm	-2754
▁trist	-2755
▁age	-2756
▁annoy	-2757
▁beer	-2758
▁brow	-2759
▁jacket	-2760
▁confused	-2761
line	-2762
owled	-2763
▁missing	-2764
zen	-2765
roud	-2766
oud	-2767
▁luc	-2768
die	-2769
oned	-2770
▁earth	-2771
▁sword	-2772
▁consider	-2773
ring	-2774
▁absolutely	-2775
▁belly	-2776
▁button	-2777
hn	-2778
ics	-2779
▁upset	-2780
▁fault	-2781
arm	-2782
▁sliding	-2783
▁comfortable	-2784
▁learn	-2785
▁team	-2786
ges	-2787
▁sha	-2788
allen	-2789
▁cap	-2790
gin	-2791
alous	-2792
▁mort	-2793
▁doctor	-2794
▁played	-2795
▁goes	-2796
▁breathed	-2797
▁energ	-2798
▁difficult	-2799
▁carried	-2800
▁obs	-2801
▁inch	-2802
▁gift	-2803
▁claire	-2804
rup	-2805
▁escape	-2806
▁vampires	-2807
▁eric	-2808
omfort	-2809
aur	-2810
▁cash	-2811
▁fil	-2812
▁slammed	-2813
▁flash	-2814
▁luci	-2815
▁growing	-2816
▁arr	-2817
▁equ	-2818
▁cand	-2819
▁smart	-2820
▁refused	-2821
▁flashed	-2822
▁desperate	-2823
▁mere	-2824
▁pop	-2825
▁possess	-2826
right	-2827
▁impossible	-2828
you	-2829
ancy	-2830
amb	-2831
▁dear	-2832
▁chuckled	-2833
▁gigg	-2834
▁concern	-2835
▁warmth	-2836
▁elev	-2837
▁fought	-2838
▁windows	-2839
▁wave	-2840
▁nate	-2841
▁cass	-2842
▁prop	-2843
▁intense	-2844
ived	-2845
ugs	-2846
▁planned	-2847
▁lift	-2848
▁favorite	-2849
▁slept	-2850
▁respons	-2851
▁instinct	-2852
asc	-2853
hen	-2854
▁mac	-2855
▁challen	-2856
▁sean	-2857
racted	-2858
▁tightly	-2859
val	-2860
▁text	-2861
▁mic	-2862
▁focused	-2863
▁gives	-2864
▁blind	-2865
▁involved	-2866
▁tip	-2867
ounced	-2868
oc	-2869
▁shared	-2870
▁tab	-2871
▁fant	-2872
▁offic	-2873
▁energy	-2874
▁present	-2875
night	-2876
▁weap	-2877
▁concerned	-2878
▁super	-2879
▁base	-2880
▁pool	-2881
▁yan	-2882
▁tree	-2883
▁main	-2884
▁fully	-2885
▁restaur	-2886
▁worst	-2887
▁viol	-2888
▁jam	-2889
eless	-2890
anted	-2891
▁plans	-2892
▁proud	-2893
unity	-2894
▁queen	-2895
▁coat	-2896
▁panic	-2897
▁jess	-2898
▁security	-2899
▁kicked	-2900
▁released	-2901
ural	-2902
▁burned	-2903
▁clut	-2904
▁heels	-2905
▁screw	-2906
▁pregnant	-2907
▁prov	-2908
▁reb	-2909
▁clary	-2910
▁guest	-2911
▁uns	-2912
▁faster	-2913
▁breakfast	-2914
▁shudd	-2915
athan	-2916
▁x	-2917
rified	-2918
▁considering	-2919
▁horse	-2920
▁jealous	-2921
▁ling	-2922
▁tex	-2923
▁hi	-2924
▁possibly	-2925
▁eventually	-2926
▁excited	-2927
ole	-2928
▁aunt	-2929
oll	-2930
apers	-2931
▁tristan	-2932
▁mistake	-2933
▁don	-2934
▁knock	-2935
▁pressing	-2936
▁sed	-2937
▁jason	-2938
▁wrist	-2939
▁mil	-2940
▁poor	-2941
▁bodies	-2942
▁trail	-2943
▁mot	-2944
inging	-2945
icated	-2946
▁kick	-2947
▁risk	-2948
str	-2949
▁peace	-2950
ibility	-2951
▁doll	-2952
ordan	-2953
▁staying	-2954
▁handsome	-2955
▁choo	-2956
▁screamed	-2957
▁presence	-2958
ified	-2959
▁snow	-2960
▁nar	-2961
▁eager	-2962
bl	-2963
asy	-2964
▁kee	-2965
▁nipp	-2966
▁oppos	-2967
▁doorway	-2968
▁admitted	-2969
▁sink	-2970
▁following	-2971
▁lucien	-2972
▁fist	-2973
▁subject	-2974
▁rap	-2975
▁boyfriend	-2976
▁determined	-2977
▁hearing	-2978
▁weekend	-2979
▁til	-2980
▁viv	-2981
▁adm	-2982
▁hat	-2983
▁colle	-2984
▁exha	-2985
▁hen	-2986
▁waved	-2987
ana	-2988
▁screen	-2989
▁jordan	-2990
▁trees	-2991
▁inde	-2992
▁gras	-2993
▁dreams	-2994
rage	-2995
▁knife	-2996
▁steady	-2997
▁butt	-2998
▁message	-2999
▁particular	-3000
▁cru	-3001
ading	-3002
gl	-3003
▁sides	-3004
▁acce	-3005
▁dust	-3006
▁smir	-3007
▁wonderful	-3008
▁cook	-3009
▁purse	-3010
▁twice	-3011
ael	-3012
ses	-3013
▁cabin	-3014
ique	-3015
▁cared	-3016
▁ordered	-3017
▁features	-3018
ball	-3019
anda	-3020
▁seven	-3021
▁purp	-3022
ids	-3023
▁hungry	-3024
oved	-3025
▁crap	-3026
unately	-3027
▁extra	-3028
▁shop	-3029
▁skirt	-3030
▁port	-3031
▁surf	-3032
▁excite	-3033
▁places	-3034
▁studied	-3035
▁bear	-3036
▁below	-3037
▁dare	-3038
▁knee	-3039
vent	-3040
▁trip	-3041
▁length	-3042
▁stretched	-3043
▁breaking	-3044
▁flick	-3045
▁josh	-3046
▁brows	-3047
▁loose	-3048
▁glared	-3049
izz	-3050
▁defe	-3051
▁hello	-3052
▁wit	-3053
▁echo	-3054
ius	-3055
▁boss	-3056
lfriend	-3057
▁welcome	-3058
▁type	-3059
▁org	-3060
▁bought	-3061
ives	-3062
▁sla	-3063
▁tender	-3064
▁easier	-3065
▁fallen	-3066
▁shadow	-3067
annah	-3068
▁includ	-3069
▁burning	-3070
rett	-3071
▁paid	-3072
▁panties	-3073
▁fab	-3074
▁excitement	-3075
▁relaxed	-3076
bast	-3077
▁plate	-3078
ners	-3079
▁jes	-3080
▁wes	-3081
▁lee	-3082
▁spir	-3083
▁listening	-3084
mer	-3085
▁forgotten	-3086
cri	-3087
▁humans	-3088
▁hesitated	-3089
▁hiding	-3090
▁dy	-3091
▁ivy	-3092
▁joe	-3093
▁shocked	-3094
time	-3095
▁sne	-3096
cl	-3097
▁fort	-3098
▁sebast	-3099
ppy	-3100
▁noise	-3101
▁tension	-3102
▁yester	-3103
▁destroy	-3104
▁unf	-3105
▁tort	-3106
▁gods	-3107
▁metal	-3108
▁speed	-3109
ts	-3110
▁div	-3111
▁sebastian	-3112
▁yesterday	-3113
▁spell	-3114
▁shall	-3115
▁succ	-3116
▁aut	-3117
▁james	-3118
▁antic	-3119
mas	-3120
▁themselves	-3121
▁slee	-3122
▁bastard	-3123
▁heading	-3124
▁ment	-3125
▁restaurant	-3126
▁accident	-3127
▁lovely	-3128
▁continue	-3129
▁invest	-3130
hood	-3131
bel	-3132
▁alec	-3133
anging	-3134
▁badly	-3135
▁narrow	-3136
▁caused	-3137
▁rece	-3138
▁craw	-3139
▁rad	-3140
▁driver	-3141
▁effect	-3142
▁tugged	-3143
▁nik	-3144
▁kate	-3145
▁closing	-3146
lle	-3147
▁regard	-3148
▁battle	-3149
▁eyebrows	-3150
▁showing	-3151
▁betr	-3152
▁slide	-3153
▁opposite	-3154
▁moon	-3155
board	-3156
▁blow	-3157
▁boots	-3158
iana	-3159
▁image	-3160
antic	-3161
aming	-3162
▁huh	-3163
▁deeply	-3164
not	-3165
▁bound	-3166
▁decide	-3167
▁blame	-3168
ency	-3169
▁prefer	-3170
▁nur	-3171
▁parking	-3172
bby	-3173
ern	-3174
▁vir	-3175
▁bas	-3176
▁buck	-3177
▁climbed	-3178
ston	-3179
▁release	-3180
idge	-3181
▁hardly	-3182
agged	-3183
▁card	-3184
▁lat	-3185
▁aud	-3186
▁princ	-3187
kward	-3188
ensive	-3189
▁uncomfort	-3190
▁blur	-3191
iculous	-3192
▁girlfriend	-3193
atic	-3194
▁suggest	-3195
▁mart	-3196
ste	-3197
▁swung	-3198
▁golden	-3199
▁awkward	-3200
▁movie	-3201
▁irrit	-3202
▁drunk	-3203
▁refle	-3204
yal	-3205
▁comput	-3206
▁rul	-3207
▁dick	-3208
▁pictures	-3209
▁trick	-3210
iety	-3211
bing	-3212
▁demons	-3213
▁guilt	-3214
▁pee	-3215
▁master	-3216
▁mount	-3217
▁reply	-3218
▁public	-3219
▁ignore	-3220
▁tear	-3221
▁corre	-3222
▁widened	-3223
▁pressure	-3224
▁claim	-3225
▁woke	-3226
iley	-3227
▁por	-3228
▁dirty	-3229
▁vision	-3230
▁college	-3231
▁staff	-3232
▁mostly	-3233
ham	-3234
▁entr	-3235
▁loving	-3236
▁helping	-3237
▁hint	-3238
▁purpose	-3239
itched	-3240
▁licked	-3241
▁inj	-3242
▁soc	-3243
mother	-3244
▁beach	-3245
▁wolf	-3246
▁respect	-3247
▁interrup	-3248
lock	-3249
▁sending	-3250
▁directly	-3251
▁necess	-3252
▁bringing	-3253
▁warri	-3254
▁ceiling	-3255
▁whit	-3256
▁deliver	-3257
▁tick	-3258
▁groan	-3259
▁spark	-3260
▁bry	-3261
▁fury	-3262
▁forth	-3263
▁elevator	-3264
▁third	-3265
▁rushed	-3266
▁process	-3267
▁lad	-3268
▁john	-3269
▁heaven	-3270
aine	-3271
ashes	-3272
▁dragged	-3273
▁join	-3274
▁final	-3275
olet	-3276
▁unfort	-3277
attered	-3278
▁pure	-3279
▁rh	-3280
▁opt	-3281
▁concent	-3282
▁arched	-3283
▁comment	-3284
▁urge	-3285
az	-3286
omed	-3287
▁greet	-3288
▁grate	-3289
wor	-3290
▁imagined	-3291
▁books	-3292
off	-3293
▁shadows	-3294
nday	-3295
▁disg	-3296
▁concentr	-3297
▁hidden	-3298
▁stor	-3299
▁reading	-3300
▁anticip	-3301
▁feed	-3302
▁cream	-3303
▁prove	-3304
▁calls	-3305
▁buried	-3306
lin	-3307
▁sexual	-3308
▁fifteen	-3309
▁lexi	-3310
▁tucked	-3311
▁whenever	-3312
▁song	-3313
what	-3314
▁mix	-3315
▁mal	-3316
▁happens	-3317
▁william	-3318
▁experien	-3319
▁lab	-3320
▁pause	-3321
▁camp	-3322
▁cel	-3323
▁cow	-3324
▁teasing	-3325
key	-3326
▁hy	-3327
▁entirely	-3328
▁christmas	-3329
▁hol	-3330
▁eve	-3331
▁field	-3332
cer	-3333
vet	-3334
▁vib	-3335
▁hip	-3336
▁relie	-3337
▁ridiculous	-3338
rap	-3339
▁psy	-3340
▁--	-3341
▁support	-3342
▁violet	-3343
▁towel	-3344
▁scene	-3345
house	-3346
▁glare	-3347
▁sensation	-3348
▁arg	-3349
▁isabella	-3350
ooked	-3351
▁lightly	-3352
▁gripped	-3353
▁hart	-3354
wise	-3355
▁expecting	-3356
▁opport	-3357
▁circle	-3358
▁stab	-3359
▁searching	-3360
▁mary	-3361
▁checked	-3362
▁fingert	-3363
▁instant	-3364
▁attempt	-3365
▁pleased	-3366
itude	-3367
▁mentioned	-3368
▁marsh	-3369
▁pieces	-3370
▁resist	-3371
▁ken	-3372
▁evil	-3373
▁prison	-3374
▁blo	-3375
intment	-3376
▁anx	-3377
▁pretend	-3378
▁reality	-3379
▁prepared	-3380
▁gard	-3381
rest	-3382
▁honestly	-3383
▁separ	-3384
lessly	-3385
▁lines	-3386
▁hig	-3387
▁rested	-3388
illy	-3389
▁bitter	-3390
▁suspic	-3391
inting	-3392
▁eating	-3393
▁born	-3394
▁lucy	-3395
▁wheel	-3396
▁zoe	-3397
▁rafe	-3398
ills	-3399
▁exam	-3400
▁surely	-3401
▁current	-3402
▁frustration	-3403
▁miles	-3404
▁faint	-3405
she	-3406
▁est	-3407
▁board	-3408
▁callum	-3409
▁interesting	-3410
▁numb	-3411
▁rang	-3412
▁sir	-3413
idding	-3414
port	-3415
▁smiles	-3416
▁drawing	-3417
▁cous	-3418
▁island	-3419
▁spun	-3420
ledge	-3421
▁rob	-3422
▁moan	-3423
reme	-3424
▁itself	-3425
▁ting	-3426
▁froze	-3427
▁spine	-3428
▁damned	-3429
▁avoid	-3430
ils	-3431
▁rare	-3432
pers	-3433
▁thinks	-3434
▁tilted	-3435
▁abby	-3436
▁joy	-3437
▁practically	-3438
▁vibr	-3439
▁slip	-3440
▁computer	-3441
▁hannah	-3442
▁sold	-3443
▁vic	-3444
▁accom	-3445
that	-3446
pect	-3447
▁elect	-3448
▁dylan	-3449
▁cree	-3450
▁arou	-3451
▁moaned	-3452
▁firmly	-3453
▁throwing	-3454
▁rage	-3455
▁approached	-3456
▁grown	-3457
▁curt	-3458
▁planning	-3459
▁rolling	-3460
▁lifting	-3461
▁gabe	-3462
▁chick	-3463
▁ron	-3464
▁tatt	-3465
form	-3466
▁yelled	-3467
case	-3468
iday	-3469
▁killing	-3470
ama	-3471
ague	-3472
▁maj	-3473
ety	-3474
ron	-3475
▁tele	-3476
▁layne	-3477
▁jackson	-3478
uce	-3479
▁rising	-3480
▁terrible	-3481
▁ere	-3482
▁idiot	-3483
bye	-3484
asion	-3485
▁writ	-3486
▁rubbing	-3487
▁um	-3488
▁amy	-3489
ante	-3490
▁swept	-3491
▁warned	-3492
▁tug	-3493
▁folded	-3494
▁fierce	-3495
▁non	-3496
▁cost	-3497
▁soot	-3498
▁post	-3499
▁double	-3500
▁entrance	-3501
▁vol	-3502
▁pride	-3503
▁pad	-3504
▁clit	-3505
▁reasons	-3506
aging	-3507
▁among	-3508
▁wand	-3509
▁exh	-3510
▁overw	-3511
ipp	-3512
▁knocked	-3513
▁rub	-3514
well	-3515
▁wow	-3516
▁flew	-3517
▁jenks	-3518
▁tun	-3519
work	-3520
▁exist	-3521
▁harm	-3522
ume	-3523
▁country	-3524
▁nine	-3525
▁tang	-3526
▁jim	-3527
▁solid	-3528
lled	-3529
▁meaning	-3530
▁mason	-3531
▁cooper	-3532
ades	-3533
▁lust	-3534
▁tattoo	-3535
▁joined	-3536
▁temper	-3537
▁fren	-3538
iving	-3539
▁upstairs	-3540
ooking	-3541
▁abrupt	-3542
▁bloody	-3543
ica	-3544
▁fang	-3545
neath	-3546
▁appreciate	-3547
▁lace	-3548
▁lied	-3549
stem	-3550
▁deserve	-3551
▁underneath	-3552
cher	-3553
▁cloud	-3554
ented	-3555
▁enem	-3556
▁awake	-3557
▁delight	-3558
▁cameron	-3559
▁dal	-3560
▁details	-3561
ob	-3562
▁stir	-3563
▁ju	-3564
▁hist	-3565
▁utter	-3566
▁pillow	-3567
oted	-3568
illing	-3569
▁court	-3570
▁setting	-3571
issa	-3572
▁collar	-3573
▁dais	-3574
▁keys	-3575
▁fright	-3576
yer	-3577
▁neigh	-3578
▁convince	-3579
fit	-3580
▁mich	-3581
▁recognized	-3582
▁silently	-3583
▁harsh	-3584
▁system	-3585
▁stal	-3586
▁carrying	-3587
▁comb	-3588
▁neighb	-3589
▁curious	-3590
▁answers	-3591
▁chat	-3592
▁knowledge	-3593
af	-3594
▁pace	-3595
▁landed	-3596
▁physical	-3597
▁dancing	-3598
▁problems	-3599
▁drif	-3600
▁twist	-3601
▁victoria	-3602
▁confusion	-3603
▁henry	-3604
▁gh	-3605
▁laure	-3606
▁var	-3607
▁hurry	-3608
▁nobody	-3609
▁enjoying	-3610
ground	-3611
▁vinc	-3612
▁curse	-3613
▁plane	-3614
▁hugged	-3615
unted	-3616
ploy	-3617
▁innocent	-3618
▁scrat	-3619
▁flying	-3620
▁enjoyed	-3621
▁dying	-3622
▁glasses	-3623
▁uncomfortable	-3624
▁belt	-3625
▁bride	-3626
▁muscle	-3627
▁vo	-3628
▁park	-3629
▁opportunity	-3630
▁listened	-3631
▁closet	-3632
▁grateful	-3633
▁block	-3634
▁unfortunately	-3635
▁lack	-3636
anned	-3637
▁grandmother	-3638
▁rum	-3639
ounce	-3640
▁brush	-3641
cil	-3642
▁skyla	-3643
▁sip	-3644
▁nipple	-3645
▁wiped	-3646
▁intro	-3647
▁overwhel	-3648
iant	-3649
▁holy	-3650
▁spin	-3651
view	-3652
▁backward	-3653
▁charlie	-3654
▁size	-3655
ury	-3656
▁relieved	-3657
▁everywhere	-3658
▁sank	-3659
▁ignoring	-3660
▁palms	-3661
▁bella	-3662
ese	-3663
ider	-3664
▁jew	-3665
▁claw	-3666
▁bla	-3667
▁orgasm	-3668
▁otherwise	-3669
▁atte	-3670
▁york	-3671
▁**	-3672
▁paris	-3673
▁ari	-3674
▁balls	-3675
▁flipped	-3676
▁faded	-3677
▁wings	-3678
▁record	-3679
▁garrett	-3680
▁connor	-3681
▁plenty	-3682
▁dere	-3683
▁princess	-3684
▁flowers	-3685
▁heads	-3686
aps	-3687
▁shrug	-3688
▁fists	-3689
▁tea	-3690
▁tie	-3691
▁stroked	-3692
▁frank	-3693
▁acting	-3694
ution	-3695
pless	-3696
▁stunned	-3697
▁blanket	-3698
▁waves	-3699
▁beast	-3700
pting	-3701
▁jesus	-3702
▁cole	-3703
under	-3704
aly	-3705
▁commit	-3706
▁screaming	-3707
▁struck	-3708
▁honor	-3709
▁lung	-3710
▁exch	-3711
▁squeeze	-3712
ott	-3713
▁built	-3714
▁jet	-3715
▁san	-3716
▁colin	-3717
▁surface	-3718
▁cute	-3719
▁adj	-3720
▁teased	-3721
aden	-3722
▁poured	-3723
▁amount	-3724
▁yanked	-3725
▁gw	-3726
▁suppose	-3727
▁extreme	-3728
▁movement	-3729
iest	-3730
▁wrap	-3731
▁stream	-3732
▁sofia	-3733
▁ai	-3734
▁forgive	-3735
▁cause	-3736
▁derek	-3737
▁affect	-3738
mo	-3739
▁manage	-3740
▁interrupted	-3741
▁ease	-3742
▁desperately	-3743
gant	-3744
▁broad	-3745
▁tense	-3746
▁obl	-3747
▁nights	-3748
▁straightened	-3749
▁pit	-3750
otte	-3751
▁tar	-3752
▁saved	-3753
agger	-3754
lish	-3755
▁choose	-3756
ola	-3757
umbling	-3758
▁silk	-3759
▁faces	-3760
▁birthday	-3761
▁boat	-3762
arily	-3763
ira	-3764
▁deb	-3765
ios	-3766
▁tv	-3767
asha	-3768
ias	-3769
▁trembling	-3770
▁suggested	-3771
▁becoming	-3772
▁mach	-3773
▁ripped	-3774
▁mc	-3775
▁higher	-3776
fl	-3777
▁drinking	-3778
▁tam	-3779
uit	-3780
▁faced	-3781
▁struggled	-3782
▁stopping	-3783
▁prince	-3784
▁fer	-3785
▁tess	-3786
▁descri	-3787
ples	-3788
▁pounding	-3789
▁cupped	-3790
▁assist	-3791
▁declan	-3792
ico	-3793
▁delicious	-3794
▁aband	-3795
andra	-3796
▁reass	-3797
▁remain	-3798
▁misty	-3799
▁shift	-3800
▁loss	-3801
▁sell	-3802
▁forcing	-3803
▁insisted	-3804
▁elbow	-3805
igned	-3806
▁unw	-3807
▁rese	-3808
▁normally	-3809
▁saf	-3810
▁search	-3811
▁million	-3812
▁charlotte	-3813
▁daddy	-3814
▁younger	-3815
▁flut	-3816
▁damien	-3817
▁flight	-3818
▁suspected	-3819
▁action	-3820
▁intens	-3821
gar	-3822
▁backed	-3823
mp	-3824
irled	-3825
▁stage	-3826
▁sac	-3827
inger	-3828
▁employ	-3829
▁sca	-3830
▁scra	-3831
▁libr	-3832
▁emer	-3833
▁cha	-3834
▁gathered	-3835
heart	-3836
▁removed	-3837
▁fingertips	-3838
▁glow	-3839
▁beating	-3840
ument	-3841
▁painful	-3842
▁blade	-3843
ilar	-3844
uries	-3845
▁kane	-3846
▁snar	-3847
▁insane	-3848
iber	-3849
▁porch	-3850
▁deserved	-3851
▁bigger	-3852
▁protest	-3853
▁marshall	-3854
▁lake	-3855
▁swift	-3856
▁nowhere	-3857
▁decl	-3858
▁dalton	-3859
▁smelled	-3860
▁ank	-3861
▁log	-3862
▁damp	-3863
▁sque	-3864
▁gwen	-3865
▁success	-3866
▁rules	-3867
▁downstairs	-3868
▁pulse	-3869
▁wicked	-3870
▁horror	-3871
▁unlike	-3872
▁challenge	-3873
▁gasp	-3874
▁assumed	-3875
▁secrets	-3876
▁andre	-3877
▁popped	-3878
▁graham	-3879
▁hissed	-3880
▁hole	-3881
▁daisy	-3882
▁fabric	-3883
isa	-3884
▁cale	-3885
▁surrounded	-3886
▁stat	-3887
raction	-3888
▁horrible	-3889
▁animal	-3890
▁nathan	-3891
▁tent	-3892
▁chocol	-3893
play	-3894
▁vincent	-3895
▁powers	-3896
▁broo	-3897
▁connection	-3898
▁dug	-3899
▁tore	-3900
ndon	-3901
▁cord	-3902
▁inh	-3903
uc	-3904
▁aid	-3905
▁intent	-3906
▁nightm	-3907
▁rooms	-3908
▁tour	-3909
▁hurried	-3910
▁sniff	-3911
▁stronger	-3912
▁dirt	-3913
▁history	-3914
▁vul	-3915
▁ya	-3916
▁bones	-3917
▁health	-3918
▁trave	-3919
▁punish	-3920
▁grit	-3921
▁cele	-3922
▁hud	-3923
imp	-3924
▁fal	-3925
▁embr	-3926
▁morgan	-3927
inced	-3928
▁emily	-3929
▁leaves	-3930
▁host	-3931
▁psych	-3932
▁dropping	-3933
▁snat	-3934
father	-3935
▁spoken	-3936
▁resting	-3937
▁intended	-3938
ena	-3939
velop	-3940
▁ms	-3941
▁incre	-3942
▁charge	-3943
erial	-3944
▁celebr	-3945
▁mod	-3946
▁zach	-3947
▁convinced	-3948
▁teen	-3949
▁failed	-3950
▁pred	-3951
▁swim	-3952
▁thor	-3953
▁tig	-3954
▁alice	-3955
▁loves	-3956
▁guil	-3957
▁tech	-3958
▁picking	-3959
▁surprising	-3960
▁nightmare	-3961
▁michael	-3962
▁occasion	-3963
vering	-3964
▁ability	-3965
▁hector	-3966
▁amuse	-3967
▁guilty	-3968
▁row	-3969
▁cust	-3970
bit	-3971
beat	-3972
▁hudson	-3973
▁introdu	-3974
▁grabbing	-3975
tt	-3976
▁necessary	-3977
▁freaking	-3978
▁river	-3979
▁dating	-3980
▁liqu	-3981
▁lungs	-3982
ki	-3983
▁sofa	-3984
▁murder	-3985
eline	-3986
▁pers	-3987
▁london	-3988
iment	-3989
▁match	-3990
▁whose	-3991
▁parted	-3992
▁evan	-3993
▁anna	-3994
▁material	-3995
ously	-3996
icing	-3997
▁works	-3998
otic	-3999
uses	-4000
ona	-4001
▁impat	-4002
▁julie	-4003
▁natural	-4004
▁west	-4005
ilities	-4006
▁difference	-4007
▁goddam	-4008
of	-4009
▁split	-4010
▁covers	-4011
▁kidding	-4012
▁discovered	-4013
asty	-4014
▁investig	-4015
▁gle	-4016
▁holl	-4017
▁lang	-4018
▁champ	-4019
▁embarrassed	-4020
▁jamie	-4021
eled	-4022
ailing	-4023
▁settle	-4024
ational	-4025
▁iron	-4026
▁sensed	-4027
▁dut	-4028
▁stubb	-4029
▁conner	-4030
▁sophia	-4031
▁furn	-4032
▁terrified	-4033
▁station	-4034
▁grinning	-4035
▁snorted	-4036
▁experienced	-4037
▁tied	-4038
▁ack	-4039
▁facing	-4040
▁glancing	-4041
▁joke	-4042
▁pray	-4043
pected	-4044
▁happiness	-4045
▁accepted	-4046
antage	-4047
▁***	-4048
▁thrown	-4049
▁raw	-4050
▁argue	-4051
▁garden	-4052
▁occur	-4053
▁gown	-4054
▁drawn	-4055
▁reluct	-4056
▁lily	-4057
▁sweetheart	-4058
looking	-4059
▁ident	-4060
▁goddess	-4061
▁upper	-4062
▁shield	-4063
mission	-4064
▁amused	-4065
▁witch	-4066
▁merely	-4067
alled	-4068
▁cheer	-4069
▁clock	-4070
▁confir	-4071
stand	-4072
▁cursed	-4073
▁instru	-4074
▁starts	-4075
▁inches	-4076
▁rise	-4077
▁understanding	-4078
▁budd	-4079
▁grass	-4080
▁shifter	-4081
▁mck	-4082
hun	-4083
yl	-4084
▁callie	-4085
pes	-4086
▁bru	-4087
▁discuss	-4088
▁disgust	-4089
▁papers	-4090
▁jonas	-4091
men	-4092
▁including	-4093
▁capable	-4094
▁startled	-4095
ecca	-4096
▁ache	-4097
ille	-4098
▁breasts	-4099
▁whitney	-4100
▁cousin	-4101
▁geor	-4102
ressing	-4103
▁parked	-4104
▁whim	-4105
yes	-4106
▁erection	-4107
▁sen	-4108
▁vulner	-4109
ivia	-4110
▁spending	-4111
▁styx	-4112
▁finn	-4113
▁ori	-4114
▁dun	-4115
▁sake	-4116
▁holly	-4117
▁lover	-4118
▁isabelle	-4119
por	-4120
essed	-4121
eredith	-4122
itor	-4123
▁vill	-4124
umps	-4125
▁aver	-4126
▁smoke	-4127
▁total	-4128
▁jane	-4129
▁shame	-4130
▁olivia	-4131
▁meredith	-4132
vor	-4133
▁teac	-4134
▁shakes	-4135
▁gy	-4136
▁deny	-4137
▁rick	-4138
▁assured	-4139
▁rib	-4140
▁chocolate	-4141
aped	-4142
nowled	-4143
▁nods	-4144
ave	-4145
▁toes	-4146
▁blink	-4147
▁humor	-4148
▁bay	-4149
▁race	-4150
▁engine	-4151
▁maggie	-4152
▁whispers	-4153
aky	-4154
sal	-4155
acks	-4156
shit	-4157
▁ghost	-4158
▁sin	-4159
▁ship	-4160
ceed	-4161
▁shade	-4162
▁stubborn	-4163
▁flood	-4164
▁partner	-4165
▁bree	-4166
▁won	-4167
▁steel	-4168
▁abruptly	-4169
▁acknowled	-4170
aper	-4171
▁strang	-4172
▁briefly	-4173
▁quinn	-4174
▁recognize	-4175
urch	-4176
▁mack	-4177
▁yellow	-4178
▁square	-4179
▁whoever	-4180
▁amusement	-4181
▁roof	-4182
▁lone	-4183
▁responded	-4184
den	-4185
▁fat	-4186
wear	-4187
▁prec	-4188
▁carson	-4189
▁satisfaction	-4190
▁plus	-4191
▁butter	-4192
▁survive	-4193
▁trailed	-4194
▁twel	-4195
ication	-4196
▁casual	-4197
▁dining	-4198
▁vel	-4199
▁filling	-4200
▁shivered	-4201
year	-4202
▁react	-4203
▁causing	-4204
▁clar	-4205
▁meal	-4206
▁shape	-4207
▁julia	-4208
▁ate	-4209
▁vac	-4210
▁bothered	-4211
▁enter	-4212
▁common	-4213
▁wrists	-4214
▁pier	-4215
▁marcus	-4216
▁blonde	-4217
▁helpless	-4218
bert	-4219
heron	-4220
▁rebecca	-4221
▁announced	-4222
agg	-4223
▁acheron	-4224
▁witness	-4225
▁covering	-4226
lder	-4227
itation	-4228
▁hurting	-4229
▁library	-4230
▁heavily	-4231
▁shorts	-4232
▁senses	-4233
ago	-4234
pet	-4235
▁shay	-4236
▁mumbled	-4237
mon	-4238
wal	-4239
uine	-4240
▁distracted	-4241
▁guards	-4242
oh	-4243
ette	-4244
▁robe	-4245
▁valent	-4246
▁nails	-4247
▁rory	-4248
▁wash	-4249
▁train	-4250
▁safety	-4251
ium	-4252
▁likes	-4253
ference	-4254
▁twelve	-4255
▁weapon	-4256
▁di	-4257
▁height	-4258
▁intern	-4259
wo	-4260
▁ryan	-4261
▁esc	-4262
▁freed	-4263
▁frances	-4264
▁anticipation	-4265
▁correct	-4266
ception	-4267
▁slapped	-4268
▁oce	-4269
▁account	-4270
▁warrior	-4271
wood	-4272
▁seth	-4273
▁ine	-4274
▁tiger	-4275
▁sheets	-4276
▁amb	-4277
▁thom	-4278
▁offering	-4279
▁eddie	-4280
▁sophie	-4281
▁cred	-4282
▁chose	-4283
▁gesture	-4284
▁sour	-4285
▁blew	-4286
▁paying	-4287
anna	-4288
▁genuine	-4289
▁exhausted	-4290
▁sched	-4291
▁letter	-4292
▁wren	-4293
▁inner	-4294
▁zack	-4295
▁unex	-4296
▁magnus	-4297
▁frame	-4298
▁constant	-4299
▁decor	-4300
anor	-4301
▁dread	-4302
▁lies	-4303
▁quit	-4304
▁makeup	-4305
▁sooner	-4306
▁contract	-4307
▁jerk	-4308
▁tur	-4309
iction	-4310
▁oper	-4311
▁cars	-4312
▁wrapping	-4313
▁passing	-4314
▁kim	-4315
▁cher	-4316
▁tells	-4317
▁tit	-4318
▁sisters	-4319
▁nature	-4320
▁flushed	-4321
amped	-4322
▁nope	-4323
▁leading	-4324
▁incredible	-4325
▁sib	-4326
▁ocean	-4327
▁sway	-4328
▁explan	-4329
▁nad	-4330
erv	-4331
▁belle	-4332
▁stranger	-4333
▁langu	-4334
▁travel	-4335
une	-4336
▁holds	-4337
▁profession	-4338
▁worn	-4339
▁awful	-4340
▁woods	-4341
asped	-4342
ashion	-4343
▁report	-4344
▁cutting	-4345
▁garage	-4346
▁indeed	-4347
▁glo	-4348
▁fate	-4349
▁service	-4350
▁swallow	-4351
▁created	-4352
▁stepping	-4353
▁rhy	-4354
▁stroke	-4355
▁halfway	-4356
▁catching	-4357
▁heartbeat	-4358
▁nap	-4359
▁christian	-4360
▁fasc	-4361
▁furious	-4362
▁statement	-4363
▁wan	-4364
▁accord	-4365
▁escaped	-4366
▁wooden	-4367
▁nina	-4368
▁tasted	-4369
▁bone	-4370
▁trevor	-4371
vision	-4372
rop	-4373
▁satur	-4374
▁nerves	-4375
▁evidence	-4376
hand	-4377
▁shel	-4378
▁trusted	-4379
▁devil	-4380
▁forty	-4381
▁brill	-4382
▁gall	-4383
ura	-4384
aire	-4385
▁ant	-4386
▁wis	-4387
▁aching	-4388
▁sensitive	-4389
▁rule	-4390
▁major	-4391
▁advantage	-4392
▁ban	-4393
osen	-4394
▁fixed	-4395
▁slo	-4396
▁bank	-4397
▁heather	-4398
▁wishing	-4399
▁satisfied	-4400
▁object	-4401
ik	-4402
▁threatened	-4403
▁taught	-4404
▁fart	-4405
▁disbel	-4406
▁ward	-4407
ule	-4408
▁ing	-4409
gly	-4410
▁oliver	-4411
▁opin	-4412
▁dani	-4413
▁games	-4414
▁bleed	-4415
▁fake	-4416
▁gazed	-4417
▁chosen	-4418
▁bul	-4419
▁crew	-4420
▁grad	-4421
gress	-4422
▁nearby	-4423
▁curve	-4424
▁stars	-4425
▁quar	-4426
▁neg	-4427
▁sea	-4428
▁scow	-4429
▁caleb	-4430
▁ryder	-4431
ora	-4432
▁issue	-4433
▁eased	-4434
▁swell	-4435
kn	-4436
▁heated	-4437
boy	-4438
umping	-4439
▁depe	-4440
▁parts	-4441
▁sarah	-4442
▁myst	-4443
▁bags	-4444
▁clue	-4445
▁ladies	-4446
▁clothing	-4447
▁alarm	-4448
▁leans	-4449
▁begging	-4450
▁potent	-4451
mi	-4452
▁stated	-4453
▁confident	-4454
▁unexpected	-4455
ij	-4456
py	-4457
▁shy	-4458
▁arrange	-4459
▁appe	-4460
ization	-4461
alle	-4462
▁church	-4463
▁mattress	-4464
▁hal	-4465
▁dozen	-4466
▁painting	-4467
▁tipped	-4468
▁trapped	-4469
▁ugly	-4470
▁afford	-4471
▁cracked	-4472
▁stroking	-4473
▁answering	-4474
▁lots	-4475
dom	-4476
ify	-4477
au	-4478
▁winked	-4479
▁exte	-4480
▁rome	-4481
▁techn	-4482
▁fac	-4483
▁sarc	-4484
gest	-4485
▁searched	-4486
▁sounding	-4487
ism	-4488
▁kell	-4489
▁adrian	-4490
iently	-4491
▁stands	-4492
▁brushing	-4493
hol	-4494
▁kend	-4495
▁camera	-4496
place	-4497
▁prev	-4498
▁virgin	-4499
▁torn	-4500
▁riley	-4501
zie	-4502
▁giant	-4503
▁silly	-4504
▁chairs	-4505
enger	-4506
▁ens	-4507
▁damage	-4508
▁meas	-4509
▁spirit	-4510
▁hitting	-4511
ats	-4512
▁etern	-4513
▁tan	-4514
▁paul	-4515
▁behav	-4516
ulf	-4517
▁washed	-4518
▁choked	-4519
▁echoed	-4520
▁yep	-4521
ormed	-4522
▁drug	-4523
▁drifted	-4524
▁stumbled	-4525
min	-4526
▁jour	-4527
▁nadia	-4528
▁pierce	-4529
▁possibility	-4530
▁farm	-4531
▁riding	-4532
▁tessa	-4533
▁dipped	-4534
▁racing	-4535
▁creature	-4536
bble	-4537
gged	-4538
▁sucking	-4539
▁katie	-4540
▁chew	-4541
▁hors	-4542
▁bunch	-4543
▁rhyth	-4544
▁darling	-4545
▁anton	-4546
▁underwear	-4547
▁patted	-4548
▁attract	-4549
hetic	-4550
▁photog	-4551
▁bullshit	-4552
▁raise	-4553
atically	-4554
▁actions	-4555
▁sab	-4556
▁guests	-4557
▁spar	-4558
▁fifty	-4559
can	-4560
▁moves	-4561
▁loudly	-4562
onscious	-4563
▁rip	-4564
▁forest	-4565
▁symp	-4566
▁contr	-4567
esome	-4568
▁univer	-4569
▁leo	-4570
▁tighter	-4571
dding	-4572
▁driveway	-4573
▁bird	-4574
▁hank	-4575
▁access	-4576
▁tensed	-4577
▁ranch	-4578
▁disappointment	-4579
▁amel	-4580
po	-4581
▁verity	-4582
▁stories	-4583
▁intimate	-4584
insley	-4585
bbled	-4586
▁smoot	-4587
▁claimed	-4588
▁francesca	-4589
elle	-4590
▁dismiss	-4591
▁flin	-4592
▁surre	-4593
▁bi	-4594
▁written	-4595
▁rhythm	-4596
▁sid	-4597
umn	-4598
▁emotional	-4599
▁aim	-4600
▁isa	-4601
▁lux	-4602
▁salv	-4603
▁needing	-4604
▁gear	-4605
▁freak	-4606
▁tables	-4607
asper	-4608
▁eyel	-4609
▁waste	-4610
▁miranda	-4611
▁gate	-4612
▁encou	-4613
▁thomas	-4614
▁checking	-4615
▁remembering	-4616
▁page	-4617
we	-4618
ales	-4619
▁amer	-4620
▁tail	-4621
▁trace	-4622
▁project	-4623
▁faith	-4624
▁belonged	-4625
iven	-4626
▁veins	-4627
▁cart	-4628
▁lick	-4629
▁suite	-4630
▁guessed	-4631
▁ven	-4632
▁voices	-4633
▁resc	-4634
ella	-4635
▁jay	-4636
▁ny	-4637
▁grasp	-4638
vern	-4639
▁stair	-4640
ature	-4641
▁names	-4642
▁practice	-4643
mbers	-4644
▁begged	-4645
▁shooting	-4646
umble	-4647
▁members	-4648
▁changing	-4649
▁deliber	-4650
▁mattered	-4651
▁bowl	-4652
▁disappointed	-4653
▁responsible	-4654
▁french	-4655
five	-4656
▁allowing	-4657
erie	-4658
▁friday	-4659
▁curios	-4660
▁returning	-4661
▁alco	-4662
▁shopping	-4663
ache	-4664
laimed	-4665
▁expensive	-4666
▁slipping	-4667
omb	-4668
▁rev	-4669
▁colby	-4670
▁betray	-4671
▁traced	-4672
▁plastic	-4673
▁jenny	-4674
▁compet	-4675
▁apologize	-4676
▁career	-4677
▁social	-4678
uss	-4679
▁delicate	-4680
▁extremely	-4681
▁saturday	-4682
▁growl	-4683
▁strode	-4684
▁bored	-4685
▁realizing	-4686
ality	-4687
▁circum	-4688
acle	-4689
▁raced	-4690
▁nu	-4691
▁sweep	-4692
▁digging	-4693
▁preston	-4694
▁dumb	-4695
▁plain	-4696
raph	-4697
▁brandon	-4698
▁crim	-4699
▁arch	-4700
▁pockets	-4701
▁balance	-4702
▁romantic	-4703
▁neighbor	-4704
▁explod	-4705
iance	-4706
umed	-4707
▁curiosity	-4708
▁chain	-4709
ielle	-4710
▁depart	-4711
▁embrace	-4712
ienna	-4713
roll	-4714
ila	-4715
▁apoll	-4716
▁flames	-4717
▁tony	-4718
▁flicked	-4719
shine	-4720
▁tough	-4721
▁evalle	-4722
▁happily	-4723
▁ainsley	-4724
▁sienna	-4725
▁roth	-4726
▁goodbye	-4727
▁dawn	-4728
▁condom	-4729
▁invited	-4730
oot	-4731
clock	-4732
▁glit	-4733
▁orders	-4734
back	-4735
▁rout	-4736
▁struggling	-4737
▁display	-4738
irl	-4739
▁hood	-4740
▁laughs	-4741
▁explanation	-4742
▁drinks	-4743
quis	-4744
ients	-4745
▁babe	-4746
▁isaac	-4747
▁snap	-4748
▁origin	-4749
▁nurse	-4750
▁address	-4751
▁advice	-4752
ival	-4753
▁mit	-4754
▁deck	-4755
▁lun	-4756
▁knuck	-4757
▁biting	-4758
ences	-4759
▁rode	-4760
▁seeming	-4761
▁ruin	-4762
▁intention	-4763
▁punch	-4764
▁winced	-4765
stal	-4766
▁target	-4767
▁precious	-4768
hic	-4769
▁kendall	-4770
▁lin	-4771
▁sally	-4772
iture	-4773
▁restr	-4774
▁intensity	-4775
▁core	-4776
▁rand	-4777
hu	-4778
▁tub	-4779
▁squir	-4780
▁contem	-4781
▁compan	-4782
▁enemy	-4783
▁shuddered	-4784
▁divor	-4785
▁cocked	-4786
▁distur	-4787
▁thread	-4788
▁diam	-4789
aired	-4790
▁result	-4791
▁matters	-4792
▁torture	-4793
▁pile	-4794
▁liter	-4795
▁megan	-4796
▁unb	-4797
▁prim	-4798
▁elbows	-4799
▁mountain	-4800
▁connected	-4801
▁ly	-4802
▁rig	-4803
▁grief	-4804
▁strip	-4805
▁teach	-4806
▁furniture	-4807
four	-4808
▁grimaced	-4809
▁drown	-4810
▁spike	-4811
▁knot	-4812
▁heal	-4813
▁sara	-4814
▁annoyed	-4815
▁pretending	-4816
iring	-4817
▁grandma	-4818
▁attend	-4819
▁training	-4820
coming	-4821
urs	-4822
▁whom	-4823
▁syn	-4824
zzled	-4825
▁withd	-4826
▁dante	-4827
▁bud	-4828
▁named	-4829
▁horses	-4830
▁issues	-4831
▁farther	-4832
▁behavior	-4833
ases	-4834
▁plun	-4835
▁tray	-4836
▁sharing	-4837
lynn	-4838
▁fed	-4839
▁peered	-4840
▁cro	-4841
▁feared	-4842
inkled	-4843
▁property	-4844
▁regular	-4845
▁hook	-4846
▁brian	-4847
▁lately	-4848
▁temple	-4849
▁goin	-4850
▁yard	-4851
▁local	-4852
▁english	-4853
▁sharply	-4854
aph	-4855
▁stiffened	-4856
▁confidence	-4857
▁init	-4858
▁climb	-4859
yed	-4860
▁chill	-4861
▁awesome	-4862
▁pointing	-4863
▁chuckle	-4864
▁footste	-4865
▁cig	-4866
▁crad	-4867
▁fail	-4868
▁spring	-4869
▁diego	-4870
▁peter	-4871
con	-4872
▁hmm	-4873
▁bridge	-4874
▁fangs	-4875
▁background	-4876
▁barn	-4877
inated	-4878
▁sunshine	-4879
idly	-4880
▁keeps	-4881
▁walks	-4882
ulation	-4883
▁carter	-4884
▁impress	-4885
▁jol	-4886
▁haul	-4887
▁shifters	-4888
▁vivian	-4889
▁sheet	-4890
▁hunger	-4891
▁diamond	-4892
▁approach	-4893
agr	-4894
zes	-4895
▁custom	-4896
▁brilliant	-4897
▁frustrated	-4898
unched	-4899
▁vanished	-4900
▁disbelief	-4901
▁opinion	-4902
▁mental	-4903
▁insist	-4904
down	-4905
▁terms	-4906
▁massive	-4907
▁exposed	-4908
▁liquid	-4909
▁victim	-4910
▁vulnerable	-4911
▁treated	-4912
▁ze	-4913
▁thir	-4914
▁meg	-4915
▁incredibly	-4916
▁due	-4917
▁arro	-4918
▁collaps	-4919
▁impl	-4920
▁ted	-4921
▁council	-4922
imm	-4923
▁ult	-4924
▁whipped	-4925
▁frozen	-4926
▁weapons	-4927
▁grandfather	-4928
va	-4929
▁shifting	-4930
▁buddy	-4931
▁studying	-4932
▁spotted	-4933
▁ginger	-4934
▁dragging	-4935
▁footsteps	-4936
▁tapped	-4937
▁protection	-4938
▁urg	-4939
▁hous	-4940
▁hill	-4941
▁loyal	-4942
▁dealing	-4943
▁encoun	-4944
▁shove	-4945
▁discover	-4946
ront	-4947
▁richard	-4948
▁breaths	-4949
cell	-4950
▁retreat	-4951
istic	-4952
▁sunday	-4953
▁agreement	-4954
ires	-4955
▁owe	-4956
▁curls	-4957
▁runs	-4958
▁rust	-4959
▁explo	-4960
rel	-4961
▁sinc	-4962
▁jared	-4963
idy	-4964
▁scowled	-4965
agne	-4966
▁fired	-4967
raw	-4968
▁vehic	-4969
▁pizz	-4970
over	-4971
uing	-4972
eness	-4973
▁content	-4974
▁darcy	-4975
▁mckay	-4976
▁ruined	-4977
▁quiver	-4978
▁request	-4979
▁duke	-4980
▁rocked	-4981
▁dollars	-4982
▁organ	-4983
▁shown	-4984
▁write	-4985
▁credit	-4986
▁champagne	-4987
▁demanding	-4988
▁assume	-4989
▁dude	-4990
▁sacrif	-4991
▁professional	-4992
▁formed	-4993
▁eyed	-4994
▁whimper	-4995
▁drake	-4996
▁thunder	-4997
uts	-4998
▁sugar	-4999
▁bee	-5000
▁circumst	-5001
▁miser	-5002
inary	-5003
▁melan	-5004
▁informed	-5005
ooped	-5006
▁electric	-5007
▁affection	-5008
▁images	-5009
▁giggled	-5010
▁curved	-5011
nel	-5012
▁afterward	-5013
▁monster	-5014
ded	-5015
▁ribs	-5016
▁glowing	-5017
iod	-5018
▁masc	-5019
▁depth	-5020
▁shining	-5021
▁nud	-5022
▁scramb	-5023
tail	-5024
▁rhe	-5025
▁tier	-5026
▁immort	-5027
anning	-5028
▁purple	-5029
▁agent	-5030
▁attacked	-5031
▁enth	-5032
▁fish	-5033
▁halt	-5034
▁hopefully	-5035
▁nix	-5036
▁photo	-5037
town	-5038
▁tyler	-5039
▁grave	-5040
▁nodding	-5041
▁shaft	-5042
▁file	-5043
▁crou	-5044
▁ronin	-5045
▁notes	-5046
▁breeze	-5047
▁gestured	-5048
▁midnight	-5049
▁streets	-5050
▁bart	-5051
▁maddie	-5052
▁packed	-5053
▁stall	-5054
▁magaz	-5055
▁carpet	-5056
▁terror	-5057
▁biggest	-5058
▁steal	-5059
cks	-5060
▁circles	-5061
gre	-5062
arch	-5063
aret	-5064
▁kyle	-5065
▁madison	-5066
▁falls	-5067
▁points	-5068
▁alcohol	-5069
▁attached	-5070
▁centuries	-5071
▁eighteen	-5072
▁dang	-5073
▁melted	-5074
▁cake	-5075
asmine	-5076
phone	-5077
▁saving	-5078
▁viper	-5079
▁possessed	-5080
▁revealing	-5081
▁bike	-5082
▁jasmine	-5083
fan	-5084
▁period	-5085
▁doubted	-5086
▁stark	-5087
▁replaced	-5088
enzie	-5089
▁velvet	-5090
▁courage	-5091
cle	-5092
ollen	-5093
hin	-5094
▁according	-5095
ican	-5096
▁bryn	-5097
▁acted	-5098
▁north	-5099
▁exploded	-5100
▁huff	-5101
▁nerve	-5102
▁occurred	-5103
▁friendly	-5104
▁received	-5105
▁roman	-5106
walk	-5107
▁nin	-5108
▁loos	-5109
▁winter	-5110
▁adult	-5111
▁sensual	-5112
▁mask	-5113
▁pity	-5114
▁begun	-5115
▁price	-5116
▁reaches	-5117
▁spee	-5118
▁humili	-5119
▁tierney	-5120
inged	-5121
▁gritted	-5122
▁paint	-5123
▁perform	-5124
▁judge	-5125
▁stefan	-5126
▁develop	-5127
▁scary	-5128
vis	-5129
▁egg	-5130
▁vague	-5131
▁particularly	-5132
▁mace	-5133
▁argument	-5134
▁cain	-5135
▁condition	-5136
▁jere	-5137
▁scen	-5138
▁eleven	-5139
▁trained	-5140
▁enorm	-5141
▁killer	-5142
▁knuckles	-5143
▁cave	-5144
▁drawer	-5145
▁slowed	-5146
▁swollen	-5147
▁seren	-5148
▁sweater	-5149
met	-5150
xed	-5151
irling	-5152
cient	-5153
▁glances	-5154
rier	-5155
ption	-5156
▁suspect	-5157
▁ara	-5158
▁owen	-5159
▁pinned	-5160
▁similar	-5161
ader	-5162
▁gripping	-5163
rib	-5164
haired	-5165
▁desce	-5166
▁bert	-5167
▁served	-5168
▁impression	-5169
▁trembled	-5170
anny	-5171
▁football	-5172
▁reception	-5173
▁traff	-5174
▁disp	-5175
▁babies	-5176
▁assistant	-5177
▁hesitation	-5178
▁doc	-5179
▁owned	-5180
▁remote	-5181
▁recently	-5182
▁drank	-5183
▁ep	-5184
omes	-5185
▁aly	-5186
▁clutched	-5187
▁smirk	-5188
▁lashes	-5189
ita	-5190
▁concl	-5191
da	-5192
▁placing	-5193
▁chic	-5194
▁landing	-5195
▁mission	-5196
rowed	-5197
▁closely	-5198
book	-5199
▁rot	-5200
▁pounded	-5201
▁roy	-5202
▁selfish	-5203
▁edg	-5204
▁muff	-5205
▁wink	-5206
▁stole	-5207
▁orange	-5208
▁airport	-5209
▁dagger	-5210
▁eleanor	-5211
▁tend	-5212
arse	-5213
▁cage	-5214
▁sloane	-5215
▁screwed	-5216
▁valentine	-5217
▁ray	-5218
ective	-5219
atively	-5220
▁cere	-5221
▁throughout	-5222
▁bor	-5223
onus	-5224
▁ally	-5225
▁keely	-5226
▁noted	-5227
▁option	-5228
▁charm	-5229
▁erin	-5230
▁events	-5231
▁danced	-5232
▁attractive	-5233
▁poison	-5234
itions	-5235
▁ends	-5236
▁prick	-5237
▁twin	-5238
▁lobby	-5239
chell	-5240
▁ador	-5241
▁ram	-5242
▁rushing	-5243
athy	-5244
▁shrie	-5245
▁diss	-5246
▁dammit	-5247
▁punched	-5248
glass	-5249
▁stern	-5250
▁member	-5251
▁sadness	-5252
▁utterly	-5253
▁acqu	-5254
▁pizza	-5255
▁et	-5256
eyed	-5257
lad	-5258
▁hooked	-5259
▁uncertain	-5260
▁bench	-5261
▁wealth	-5262
ral	-5263
rey	-5264
▁appo	-5265
▁unlo	-5266
▁cards	-5267
▁mitchell	-5268
▁goss	-5269
▁ancient	-5270
▁fol	-5271
▁darted	-5272
▁hamm	-5273
▁trey	-5274
▁proof	-5275
▁spinning	-5276
▁appearance	-5277
▁exit	-5278
▁accent	-5279
▁ached	-5280
▁writing	-5281
▁smith	-5282
▁destroyed	-5283
▁grind	-5284
▁sevent	-5285
▁conscious	-5286
▁luca	-5287
▁tips	-5288
▁goddamn	-5289
▁lur	-5290
▁jules	-5291
▁lined	-5292
▁ellis	-5293
▁fashion	-5294
▁hunters	-5295
▁raising	-5296
▁caut	-5297
uous	-5298
▁rocky	-5299
▁panting	-5300
▁ford	-5301
▁occup	-5302
▁buttons	-5303
▁manner	-5304
▁captain	-5305
▁neckl	-5306
lor	-5307
zzy	-5308
▁kay	-5309
▁design	-5310
▁weather	-5311
▁reveal	-5312
▁swore	-5313
▁charming	-5314
▁bask	-5315
▁bond	-5316
▁vlad	-5317
▁corners	-5318
▁traffic	-5319
▁murd	-5320
▁circumstances	-5321
▁glor	-5322
▁impressed	-5323
▁dial	-5324
▁knox	-5325
add	-5326
gas	-5327
▁plat	-5328
aron	-5329
▁speech	-5330
▁existence	-5331
eling	-5332
▁swing	-5333
▁exclaimed	-5334
▁television	-5335
▁lore	-5336
▁gym	-5337
▁regan	-5338
ability	-5339
▁spect	-5340
▁stretch	-5341
▁aer	-5342
▁monday	-5343
▁rarely	-5344
▁language	-5345
▁wrath	-5346
▁seated	-5347
riate	-5348
▁machine	-5349
▁rude	-5350
▁cy	-5351
▁produ	-5352
▁role	-5353
▁lauren	-5354
ander	-5355
▁client	-5356
▁arousal	-5357
▁various	-5358
▁dall	-5359
▁drugs	-5360
▁exhaled	-5361
▁freedom	-5362
▁torment	-5363
▁painted	-5364
gram	-5365
▁apollo	-5366
▁corrid	-5367
▁passenger	-5368
erved	-5369
▁curl	-5370
▁duty	-5371
▁slick	-5372
▁kinds	-5373
acter	-5374
imate	-5375
▁brut	-5376
▁detail	-5377
▁intell	-5378
▁shoving	-5379
▁distant	-5380
aker	-5381
▁hid	-5382
▁loun	-5383
▁vide	-5384
kee	-5385
▁cruel	-5386
▁ka	-5387
▁dogs	-5388
▁sandw	-5389
▁gul	-5390
▁sits	-5391
▁ideas	-5392
▁interview	-5393
anges	-5394
▁louder	-5395
ideon	-5396
▁stops	-5397
▁lucas	-5398
▁explos	-5399
▁bleeding	-5400
▁style	-5401
jected	-5402
▁activ	-5403
▁excell	-5404
▁gideon	-5405
▁friendship	-5406
▁neat	-5407
▁george	-5408
urance	-5409
▁beck	-5410
▁leah	-5411
▁boring	-5412
▁version	-5413
▁innoc	-5414
▁clearing	-5415
▁mas	-5416
▁wry	-5417
▁tossing	-5418
▁sore	-5419
▁blast	-5420
▁sunlight	-5421
▁threatening	-5422
▁parker	-5423
▁previous	-5424
ris	-5425
▁literally	-5426
▁andrew	-5427
▁perman	-5428
▁comfor	-5429
▁commun	-5430
▁movements	-5431
▁darkened	-5432
▁squeezing	-5433
▁coop	-5434
venge	-5435
▁clo	-5436
▁auth	-5437
▁infl	-5438
▁nasty	-5439
▁harley	-5440
▁eternity	-5441
ulated	-5442
▁mixed	-5443
▁danc	-5444
▁thorough	-5445
▁abandoned	-5446
▁kicking	-5447
▁ger	-5448
▁cris	-5449
law	-5450
▁item	-5451
▁obe	-5452
▁decis	-5453
▁south	-5454
▁whist	-5455
▁knocking	-5456
▁rat	-5457
▁caress	-5458
▁marble	-5459
▁physically	-5460
▁lor	-5461
▁swiftly	-5462
▁preferred	-5463
▁photos	-5464
olves	-5465
▁outfit	-5466
▁andrea	-5467
▁patience	-5468
▁pleasant	-5469
▁begins	-5470
▁famil	-5471
▁strike	-5472
▁shaky	-5473
▁stress	-5474
▁ripp	-5475
▁exchange	-5476
▁buz	-5477
▁goo	-5478
▁snarled	-5479
▁privacy	-5480
▁hired	-5481
▁melanie	-5482
▁officer	-5483
▁drum	-5484
▁amber	-5485
iers	-5486
▁cot	-5487
▁georgie	-5488
▁unus	-5489
▁opens	-5490
▁throbbing	-5491
▁task	-5492
aching	-5493
▁clung	-5494
▁castle	-5495
▁flared	-5496
▁fantasy	-5497
▁attitude	-5498
▁frightened	-5499
▁stephen	-5500
▁rent	-5501
▁sheer	-5502
▁signs	-5503
▁dreamed	-5504
ctions	-5505
▁autom	-5506
▁soothing	-5507
▁thrilled	-5508
▁complicated	-5509
▁drops	-5510
▁recall	-5511
orts	-5512
uded	-5513
▁mall	-5514
▁refer	-5515
▁lingering	-5516
▁spit	-5517
▁maria	-5518
▁spare	-5519
▁tugging	-5520
▁nicole	-5521
▁handful	-5522
▁schedule	-5523
▁hunt	-5524
▁dull	-5525
▁frowning	-5526
▁hero	-5527
▁author	-5528
▁casually	-5529
▁necklace	-5530
▁renna	-5531
▁tease	-5532
▁tom	-5533
▁anxious	-5534
▁determination	-5535
ptop	-5536
impse	-5537
▁indy	-5538
▁aaron	-5539
▁maint	-5540
▁glimpse	-5541
▁flu	-5542
rick	-5543
▁aeron	-5544
▁laptop	-5545
▁clan	-5546
▁dallas	-5547
▁precise	-5548
▁sixteen	-5549
▁enormous	-5550
▁excellent	-5551
world	-5552
▁dart	-5553
▁laken	-5554
▁upward	-5555
▁polite	-5556
▁coach	-5557
▁mult	-5558
▁trem	-5559
▁skills	-5560
▁foolish	-5561
▁thankfully	-5562
iated	-5563
▁entertain	-5564
▁fog	-5565
ino	-5566
▁fel	-5567
▁carol	-5568
▁scanned	-5569
▁smaller	-5570
▁invitation	-5571
▁talent	-5572
▁softened	-5573
▁vegas	-5574
▁ragged	-5575
▁trash	-5576
▁chicago	-5577
▁therefore	-5578
▁licking	-5579
unting	-5580
▁brit	-5581
▁warn	-5582
▁jealousy	-5583
aste	-5584
▁army	-5585
▁tank	-5586
▁bertie	-5587
▁program	-5588
▁hurts	-5589
▁emerg	-5590
guing	-5591
ulate	-5592
▁punishment	-5593
ators	-5594
▁crystal	-5595
▁gavin	-5596
▁revealed	-5597
▁rear	-5598
oning	-5599
▁sneak	-5600
▁contain	-5601
▁surve	-5602
▁collapsed	-5603
vert	-5604
▁amelia	-5605
ato	-5606
urally	-5607
▁heel	-5608
▁caring	-5609
▁sentence	-5610
▁bullet	-5611
atore	-5612
▁slap	-5613
▁overwhelming	-5614
▁gossip	-5615
▁irritated	-5616
usi	-5617
▁claws	-5618
▁lands	-5619
▁longing	-5620
▁spilled	-5621
▁wil	-5622
ament	-5623
▁smug	-5624
▁twisting	-5625
osing	-5626
▁bolt	-5627
▁lets	-5628
▁lisa	-5629
▁letters	-5630
▁propped	-5631
rist	-5632
▁gentleman	-5633
▁shane	-5634
▁elliot	-5635
▁avoiding	-5636
sec	-5637
▁fork	-5638
▁boun	-5639
▁code	-5640
▁justice	-5641
▁smirked	-5642
▁salvatore	-5643
pack	-5644
▁wigg	-5645
▁blush	-5646
▁snatched	-5647
▁surrender	-5648
▁accompl	-5649
▁grumbled	-5650
▁stunning	-5651
▁kelly	-5652
▁offe	-5653
▁grant	-5654
▁chicken	-5655
▁flashing	-5656
▁alley	-5657
▁micah	-5658
▁remove	-5659
▁surrounding	-5660
bone	-5661
▁booth	-5662
▁tangled	-5663
▁pretended	-5664
▁ratt	-5665
▁moist	-5666
▁lonely	-5667
▁nicola	-5668
▁commanded	-5669
▁deliberately	-5670
▁bliss	-5671
▁protective	-5672
com	-5673
arest	-5674
▁fancy	-5675
▁habit	-5676
▁existed	-5677
▁bread	-5678
▁driven	-5679
▁prevent	-5680
iev	-5681
▁daim	-5682
▁dish	-5683
▁melt	-5684
▁pony	-5685
▁cheese	-5686
▁gain	-5687
▁engage	-5688
oop	-5689
ridan	-5690
icating	-5691
erc	-5692
vies	-5693
▁rope	-5694
▁market	-5695
▁crawled	-5696
▁families	-5697
immed	-5698
▁sidewalk	-5699
▁agony	-5700
▁jeremy	-5701
▁diana	-5702
▁waitress	-5703
anne	-5704
▁skye	-5705
▁liz	-5706
▁meat	-5707
iveness	-5708
▁upright	-5709
▁learning	-5710
ores	-5711
▁nav	-5712
▁fallon	-5713
▁wre	-5714
▁sant	-5715
▁conce	-5716
▁unsure	-5717
▁elegant	-5718
duct	-5719
▁lifet	-5720
▁mercy	-5721
▁twins	-5722
▁brooke	-5723
▁declared	-5724
▁stol	-5725
▁crush	-5726
▁general	-5727
arted	-5728
▁stilled	-5729
▁teacher	-5730
▁breathless	-5731
▁hoarse	-5732
▁pent	-5733
▁invis	-5734
▁jumping	-5735
▁natal	-5736
▁clare	-5737
▁stalked	-5738
▁apr	-5739
nat	-5740
chie	-5741
▁tempor	-5742
▁resol	-5743
▁nervously	-5744
▁edges	-5745
▁lightning	-5746
ett	-5747
▁ba	-5748
▁span	-5749
▁ankles	-5750
ruction	-5751
▁braced	-5752
▁purs	-5753
▁gradu	-5754
▁violent	-5755
▁refuse	-5756
▁struggle	-5757
▁concentrate	-5758
▁snugg	-5759
▁captured	-5760
▁cassidy	-5761
▁jewel	-5762
▁express	-5763
▁movies	-5764
▁avail	-5765
▁closest	-5766
▁weakness	-5767
▁animals	-5768
▁greeted	-5769
▁jonathan	-5770
▁flip	-5771
elled	-5772
▁society	-5773
▁embarrassment	-5774
▁adjust	-5775
▁sees	-5776
▁shimm	-5777
▁whiskey	-5778
▁dressing	-5779
▁fan	-5780
▁arrest	-5781
▁grayson	-5782
sa	-5783
▁motor	-5784
▁mail	-5785
▁former	-5786
▁extended	-5787
▁scare	-5788
▁moonlight	-5789
sie	-5790
▁healthy	-5791
izzy	-5792
▁brave	-5793
▁clicked	-5794
▁vehicle	-5795
▁ending	-5796
▁stolen	-5797
▁pillows	-5798
▁houses	-5799
▁suffer	-5800
bre	-5801
gment	-5802
▁leader	-5803
▁bothering	-5804
▁stack	-5805
▁amanda	-5806
▁der	-5807
▁rod	-5808
amber	-5809
▁earn	-5810
▁vance	-5811
▁pattern	-5812
▁crime	-5813
▁enthusi	-5814
▁frey	-5815
▁vent	-5816
▁smack	-5817
▁regardless	-5818
two	-5819
▁somewhat	-5820
▁delivered	-5821
▁rings	-5822
▁glaring	-5823
nal	-5824
▁natalie	-5825
▁pregnancy	-5826
nes	-5827
renal	-5828
▁positive	-5829
sequ	-5830
assie	-5831
▁cooking	-5832
▁painfully	-5833
▁iona	-5834
▁swip	-5835
▁joking	-5836
▁boot	-5837
▁brace	-5838
▁adrenal	-5839
▁rocks	-5840
▁miserable	-5841
▁feather	-5842
▁twitched	-5843
▁cer	-5844
ships	-5845
▁lesson	-5846
▁waking	-5847
▁reput	-5848
orting	-5849
▁jessie	-5850
▁numbers	-5851
▁protecting	-5852
▁fion	-5853
▁ringing	-5854
▁smoothed	-5855
▁grac	-5856
▁pushes	-5857
▁absor	-5858
▁ourselves	-5859
gy	-5860
▁gree	-5861
▁unif	-5862
▁maid	-5863
▁eaten	-5864
inating	-5865
▁planted	-5866
▁saint	-5867
▁colors	-5868
▁spite	-5869
▁gathering	-5870
omet	-5871
▁hed	-5872
▁emph	-5873
▁boxes	-5874
vit	-5875
zzle	-5876
▁sher	-5877
▁village	-5878
▁draped	-5879
▁thumbs	-5880
▁attracted	-5881
ex	-5882
▁manip	-5883
rily	-5884
▁prent	-5885
etr	-5886
▁rever	-5887
▁prentice	-5888
▁whispering	-5889
mes	-5890
▁ec	-5891
▁benny	-5892
▁wrote	-5893
▁sole	-5894
▁revenge	-5895
▁corridor	-5896
▁muscular	-5897
cony	-5898
▁pout	-5899
gal	-5900
▁bars	-5901
vement	-5902
▁stead	-5903
▁matching	-5904
▁devyn	-5905
▁cleaned	-5906
▁stuffed	-5907
▁curves	-5908
▁wandered	-5909
▁buzz	-5910
▁martin	-5911
▁classes	-5912
▁slamming	-5913
▁retrie	-5914
▁gem	-5915
▁typ	-5916
▁stock	-5917
▁balcony	-5918
▁bun	-5919
▁crash	-5920
▁ske	-5921
▁calmly	-5922
▁instinctively	-5923
aney	-5924
▁proved	-5925
▁wy	-5926
temis	-5927
▁artemis	-5928
▁changes	-5929
▁recover	-5930
eral	-5931
icate	-5932
▁anytime	-5933
▁ellie	-5934
▁decent	-5935
▁intellig	-5936
lling	-5937
▁settling	-5938
▁worrying	-5939
▁ais	-5940
▁owed	-5941
▁robert	-5942
ov	-5943
▁exec	-5944
▁backs	-5945
▁basket	-5946
▁layla	-5947
▁scars	-5948
▁amery	-5949
▁divorce	-5950
▁cleaning	-5951
▁contempl	-5952
▁responsibility	-5953
uk	-5954
▁jail	-5955
▁rigid	-5956
▁waving	-5957
▁clutching	-5958
▁bran	-5959
▁bowed	-5960
▁climax	-5961
ops	-5962
lair	-5963
▁stool	-5964
▁ducked	-5965
▁pouring	-5966
▁territ	-5967
▁dominic	-5968
▁lifetime	-5969
uary	-5970
▁mentally	-5971
▁alexandra	-5972
▁anxiety	-5973
sty	-5974
▁sinclair	-5975
▁cub	-5976
▁clayton	-5977
▁frag	-5978
▁puts	-5979
▁arranged	-5980
▁research	-5981
▁tad	-5982
▁carly	-5983
▁nikki	-5984
▁hesitate	-5985
▁location	-5986
itar	-5987
▁reminder	-5988
▁reflection	-5989
thew	-5990
ulted	-5991
▁straw	-5992
▁constantly	-5993
▁students	-5994
▁ti	-5995
essing	-5996
▁jac	-5997
▁chances	-5998
▁brick	-5999
▁highly	-6000
lar	-6001
▁wise	-6002
▁owner	-6003
▁video	-6004
▁bust	-6005
▁sonia	-6006
▁autumn	-6007
▁matthew	-6008
▁tempted	-6009
▁cops	-6010
▁leap	-6011
▁flower	-6012
▁curling	-6013
▁invisible	-6014
hold	-6015
▁mug	-6016
▁kidna	-6017
▁palace	-6018
▁whirled	-6019
▁switch	-6020
ushes	-6021
vi	-6022
raged	-6023
▁myth	-6024
▁adrenaline	-6025
nda	-6026
▁stif	-6027
▁spreading	-6028
▁slender	-6029
▁shattered	-6030
▁kin	-6031
▁trap	-6032
▁femin	-6033
▁polit	-6034
▁exasper	-6035
▁cush	-6036
eeling	-6037
hunter	-6038
▁distract	-6039
▁percent	-6040
▁sibyl	-6041
▁surge	-6042
▁edward	-6043
otch	-6044
▁crashed	-6045
▁reminding	-6046
▁celia	-6047
▁secure	-6048
▁terrif	-6049
▁rounded	-6050
▁stirred	-6051
▁fond	-6052
▁estate	-6053
▁sleeve	-6054
▁icy	-6055
▁ella	-6056
▁alert	-6057
▁toast	-6058
▁ecst	-6059
▁niall	-6060
▁season	-6061
▁permission	-6062
▁tap	-6063
▁ess	-6064
▁childhood	-6065
▁anya	-6066
▁aston	-6067
▁fence	-6068
▁nest	-6069
▁marks	-6070
▁lawyer	-6071
▁roared	-6072
was	-6073
▁fears	-6074
▁carl	-6075
kyrian	-6076
▁mmm	-6077
▁camille	-6078
len	-6079
▁glory	-6080
▁repeat	-6081
▁loth	-6082
▁annoying	-6083
▁nykyrian	-6084
▁stretching	-6085
▁wipe	-6086
▁circled	-6087
▁reluctantly	-6088
▁theo	-6089
▁caden	-6090
▁mascul	-6091
ndy	-6092
▁sob	-6093
▁sedu	-6094
ulating	-6095
▁brandt	-6096
▁fairy	-6097
▁toe	-6098
▁dishes	-6099
▁fantas	-6100
▁sideways	-6101
▁wherever	-6102
▁scrambled	-6103
▁hollow	-6104
▁drained	-6105
▁hardened	-6106
▁buildings	-6107
velope	-6108
▁stripped	-6109
▁envelope	-6110
▁alph	-6111
▁shed	-6112
▁section	-6113
▁crossing	-6114
▁seats	-6115
▁intend	-6116
issy	-6117
▁lump	-6118
▁expert	-6119
▁decisions	-6120
mail	-6121
▁haz	-6122
▁pear	-6123
▁crowded	-6124
▁department	-6125
ites	-6126
▁traveled	-6127
▁atl	-6128
▁assa	-6129
▁cronus	-6130
▁scowl	-6131
▁clients	-6132
▁interrupt	-6133
▁random	-6134
atory	-6135
▁seduct	-6136
▁stradd	-6137
▁dripping	-6138
aks	-6139
bur	-6140
▁click	-6141
▁flush	-6142
▁rocking	-6143
▁ri	-6144
mist	-6145
▁intimid	-6146
sc	-6147
▁fae	-6148
▁apology	-6149
▁grunted	-6150
▁injured	-6151
▁puff	-6152
▁sasha	-6153
▁shuff	-6154
▁arrive	-6155
▁blushed	-6156
▁separate	-6157
▁fantastic	-6158
▁vit	-6159
▁realization	-6160
ran	-6161
▁actual	-6162
▁buying	-6163
▁rox	-6164
▁purch	-6165
▁clouds	-6166
▁washing	-6167
▁mand	-6168
▁fourteen	-6169
▁photograph	-6170
▁haw	-6171
▁knight	-6172
▁leads	-6173
▁strained	-6174
▁mackenzie	-6175
▁tightening	-6176
ifer	-6177
▁pros	-6178
▁create	-6179
▁attempted	-6180
▁bold	-6181
▁mont	-6182
paper	-6183
▁tempt	-6184
▁torso	-6185
▁mortal	-6186
ijah	-6187
▁limbs	-6188
▁fridge	-6189
▁compared	-6190
▁pec	-6191
▁potential	-6192
▁vik	-6193
▁hatred	-6194
▁protected	-6195
inge	-6196
▁xav	-6197
▁mama	-6198
▁duche	-6199
▁shell	-6200
attering	-6201
apping	-6202
▁hunting	-6203
▁elijah	-6204
▁batt	-6205
lights	-6206
▁angle	-6207
▁planet	-6208
▁available	-6209
li	-6210
mate	-6211
▁chief	-6212
▁insides	-6213
▁reputation	-6214
bbie	-6215
just	-6216
▁guar	-6217
▁propos	-6218
ibilities	-6219
▁character	-6220
▁gal	-6221
▁bend	-6222
▁duchess	-6223
ilet	-6224
▁tearing	-6225
▁crushed	-6226
▁pathetic	-6227
armed	-6228
▁krist	-6229
▁cotton	-6230
▁required	-6231
▁frost	-6232
orter	-6233
▁royal	-6234
▁defense	-6235
▁inhaled	-6236
▁stares	-6237
▁congr	-6238
▁oblig	-6239
▁signed	-6240
▁unusual	-6241
iable	-6242
▁inn	-6243
▁emergency	-6244
gen	-6245
▁erotic	-6246
▁skull	-6247
▁surprisingly	-6248
▁amazed	-6249
▁arrogant	-6250
▁scoff	-6251
▁shortly	-6252
▁somebody	-6253
▁edgard	-6254
dle	-6255
▁source	-6256
▁survived	-6257
glas	-6258
▁wounds	-6259
▁q	-6260
ipper	-6261
▁shots	-6262
▁sheridan	-6263
▁imagining	-6264
with	-6265
▁douglas	-6266
▁remaining	-6267
▁rav	-6268
▁dave	-6269
▁scru	-6270
▁cloth	-6271
▁ought	-6272
vere	-6273
bbling	-6274
▁slave	-6275
▁overwhelmed	-6276
▁tara	-6277
▁obliv	-6278
▁serve	-6279
ulations	-6280
▁choices	-6281
▁patient	-6282
▁josie	-6283
▁troub	-6284
▁endless	-6285
▁yelling	-6286
▁ankle	-6287
▁rescue	-6288
▁universe	-6289
▁motioned	-6290
▁engaged	-6291
pir	-6292
ians	-6293
▁singing	-6294
ero	-6295
▁landon	-6296
▁mane	-6297
▁shows	-6298
▁refusing	-6299
▁shouting	-6300
▁horrified	-6301
rison	-6302
▁guessing	-6303
nedy	-6304
▁progress	-6305
▁gry	-6306
▁knelt	-6307
▁larger	-6308
▁profess	-6309
▁exciting	-6310
▁therap	-6311
▁dusty	-6312
▁abb	-6313
▁hopes	-6314
▁kennedy	-6315
▁ruth	-6316
▁iv	-6317
▁buff	-6318
▁laying	-6319
▁messed	-6320
▁calif	-6321
▁gryph	-6322
▁ashamed	-6323
▁smacked	-6324
▁aisle	-6325
▁handing	-6326
itary	-6327
▁gran	-6328
▁insult	-6329
▁pinched	-6330
▁californ	-6331
▁switched	-6332
▁grins	-6333
▁whore	-6334
▁dresser	-6335
▁companion	-6336
▁forb	-6337
▁soap	-6338
▁charity	-6339
▁discussion	-6340
▁unconscious	-6341
▁betrayed	-6342
usive	-6343
▁duncan	-6344
▁vacation	-6345
▁attraction	-6346
▁distraction	-6347
▁magnific	-6348
tr	-6349
▁wildly	-6350
ns	-6351
▁tuck	-6352
▁plates	-6353
yard	-6354
▁christop	-6355
▁flir	-6356
▁latest	-6357
▁milk	-6358
▁justin	-6359
▁uniform	-6360
▁realm	-6361
▁reward	-6362
bal	-6363
▁bob	-6364
▁hem	-6365
▁bang	-6366
▁creatures	-6367
icy	-6368
ixt	-6369
▁fiona	-6370
▁devast	-6371
▁seventeen	-6372
▁sinking	-6373
▁lothaire	-6374
▁provided	-6375
▁lamp	-6376
▁russ	-6377
▁options	-6378
ads	-6379
▁helen	-6380
▁myster	-6381
foot	-6382
▁sticking	-6383
jo	-6384
▁shiny	-6385
▁marrying	-6386
▁questioning	-6387
▁assure	-6388
▁impact	-6389
▁staffan	-6390
▁desperation	-6391
▁spat	-6392
▁lacey	-6393
▁panicked	-6394
▁bord	-6395
ughty	-6396
▁california	-6397
onn	-6398
▁net	-6399
▁suz	-6400
▁liar	-6401
▁marked	-6402
▁misery	-6403
▁emerson	-6404
▁jun	-6405
idget	-6406
▁jill	-6407
▁giggle	-6408
▁confirmed	-6409
▁pow	-6410
▁phil	-6411
▁consequ	-6412
▁exhaust	-6413
▁rolls	-6414
▁slumped	-6415
▁eyelids	-6416
▁prompted	-6417
▁adding	-6418
▁approp	-6419
▁financ	-6420
▁climbing	-6421
iqu	-6422
▁caressed	-6423
▁dram	-6424
▁touches	-6425
▁bind	-6426
▁magazine	-6427
asp	-6428
▁domen	-6429
▁suitcase	-6430
▁grat	-6431
▁connect	-6432
▁plant	-6433
▁defeat	-6434
▁domenico	-6435
▁violence	-6436
▁rate	-6437
▁entry	-6438
▁affair	-6439
▁noelle	-6440
▁messages	-6441
▁flickered	-6442
itha	-6443
▁argued	-6444
▁shudder	-6445
▁aj	-6446
▁famous	-6447
▁wiping	-6448
veled	-6449
▁tabitha	-6450
▁increased	-6451
eter	-6452
▁greed	-6453
▁immortal	-6454
▁cries	-6455
▁dryly	-6456
▁prior	-6457
▁provide	-6458
▁screams	-6459
etch	-6460
uesday	-6461
▁crawl	-6462
▁appointment	-6463
▁presses	-6464
lying	-6465
▁remar	-6466
▁swinging	-6467
▁strangely	-6468
▁tuesday	-6469
lla	-6470
▁impro	-6471
▁altern	-6472
▁crown	-6473
itching	-6474
▁blinking	-6475
▁royce	-6476
▁sting	-6477
▁warriors	-6478
▁bury	-6479
▁fireplace	-6480
▁cookies	-6481
ado	-6482
▁ned	-6483
▁lawn	-6484
▁pussy	-6485
▁exquis	-6486
ucked	-6487
▁lexie	-6488
▁satin	-6489
▁addition	-6490
eday	-6491
▁dared	-6492
▁sofie	-6493
▁intri	-6494
▁someday	-6495
known	-6496
▁fruit	-6497
colored	-6498
▁map	-6499
▁drift	-6500
▁madeline	-6501
▁fever	-6502
▁hundreds	-6503
oci	-6504
▁hay	-6505
berry	-6506
otted	-6507
▁roughly	-6508
▁impatient	-6509
▁flynn	-6510
▁hailey	-6511
▁clamped	-6512
▁husky	-6513
pan	-6514
▁flooded	-6515
▁suppl	-6516
▁trunk	-6517
▁approval	-6518
▁throne	-6519
▁aroused	-6520
▁pap	-6521
▁mock	-6522
▁evelyn	-6523
▁civ	-6524
▁ink	-6525
▁kar	-6526
▁reject	-6527
▁shrugs	-6528
mony	-6529
▁doin	-6530
▁sets	-6531
▁dated	-6532
▁brings	-6533
▁imagination	-6534
▁dorm	-6535
▁tilt	-6536
▁tracks	-6537
▁slightest	-6538
▁zay	-6539
▁alter	-6540
▁american	-6541
▁basically	-6542
▁suspicious	-6543
iece	-6544
▁mild	-6545
▁pages	-6546
▁lil	-6547
▁formal	-6548
▁invite	-6549
antically	-6550
▁transfer	-6551
▁fluttered	-6552
▁separated	-6553
pre	-6554
▁stagg	-6555
▁gloves	-6556
▁nightstand	-6557
▁suc	-6558
gger	-6559
▁nearest	-6560
▁barte	-6561
▁hauk	-6562
▁brooks	-6563
▁thirteen	-6564
thy	-6565
▁cuff	-6566
▁perf	-6567
▁chaos	-6568
glasses	-6569
▁succeed	-6570
▁bian	-6571
▁louisa	-6572
zar	-6573
fall	-6574
▁reck	-6575
▁parties	-6576
ints	-6577
▁rab	-6578
▁carved	-6579
▁craved	-6580
▁eggs	-6581
▁candy	-6582
▁miche	-6583
▁waiter	-6584
abel	-6585
▁masculine	-6586
ribly	-6587
arette	-6588
▁kevin	-6589
orate	-6590
▁consumed	-6591
▁naturally	-6592
▁personally	-6593
▁defend	-6594
▁currently	-6595
▁impul	-6596
▁congrat	-6597
▁flowing	-6598
▁cigarette	-6599
▁jeff	-6600
▁menu	-6601
▁emerged	-6602
tery	-6603
▁roar	-6604
▁vane	-6605
▁spraw	-6606
▁blurted	-6607
sey	-6608
umph	-6609
▁saff	-6610
▁silky	-6611
▁penetr	-6612
▁ponytail	-6613
▁sighs	-6614
▁string	-6615
▁ceremony	-6616
hh	-6617
▁eva	-6618
▁clasped	-6619
▁cliff	-6620
▁confront	-6621
▁acknowledge	-6622
▁candle	-6623
▁medical	-6624
▁embarrassing	-6625
▁thousands	-6626
enses	-6627
cel	-6628
olas	-6629
▁sev	-6630
▁guns	-6631
▁sucks	-6632
▁associ	-6633
▁dumped	-6634
▁sought	-6635
▁seeking	-6636
ano	-6637
▁frantic	-6638
▁yawn	-6639
▁alright	-6640
sm	-6641
itute	-6642
uming	-6643
▁trad	-6644
▁luckily	-6645
▁unre	-6646
▁archer	-6647
▁warmed	-6648
▁territory	-6649
esty	-6650
hal	-6651
▁explode	-6652
▁mystery	-6653
▁official	-6654
▁false	-6655
▁feminine	-6656
▁original	-6657
▁mum	-6658
▁saffi	-6659
▁sliced	-6660
▁toilet	-6661
▁wrinkled	-6662
▁scarlet	-6663
▁exception	-6664
▁topic	-6665
▁flinched	-6666
▁sacrifice	-6667
aid	-6668
tin	-6669
▁useless	-6670
▁suffered	-6671
cting	-6672
headed	-6673
▁prepare	-6674
acon	-6675
▁fellows	-6676
▁visible	-6677
▁package	-6678
▁rapidly	-6679
uri	-6680
▁nostr	-6681
▁barked	-6682
▁neighborhood	-6683
▁los	-6684
▁tries	-6685
▁serena	-6686
atherine	-6687
▁scratch	-6688
agon	-6689
▁assh	-6690
▁lifts	-6691
▁moder	-6692
▁depths	-6693
▁chris	-6694
▁dried	-6695
▁jobs	-6696
▁crouched	-6697
see	-6698
▁braden	-6699
▁included	-6700
▁files	-6701
▁jones	-6702
▁arguing	-6703
▁reapers	-6704
▁sympathy	-6705
▁taut	-6706
▁series	-6707
▁measure	-6708
alian	-6709
▁bomb	-6710
▁artic	-6711
▁complex	-6712
▁devour	-6713
▁ellison	-6714
▁funeral	-6715
▁crashing	-6716
▁suffering	-6717
▁steering	-6718
uman	-6719
▁pix	-6720
▁benj	-6721
▁strider	-6722
▁enemies	-6723
▁conven	-6724
▁judgment	-6725
▁scattered	-6726
▁spade	-6727
idently	-6728
▁miracle	-6729
▁overhead	-6730
▁tanner	-6731
▁equally	-6732
▁triumph	-6733
▁staircase	-6734
bec	-6735
▁tax	-6736
▁brun	-6737
▁radio	-6738
▁charged	-6739
▁crept	-6740
istered	-6741
▁appears	-6742
▁goodness	-6743
olo	-6744
▁detective	-6745
▁haunted	-6746
▁cups	-6747
▁approaching	-6748
▁pra	-6749
▁mile	-6750
▁incident	-6751
▁levet	-6752
▁tooth	-6753
▁irritation	-6754
arded	-6755
▁intr	-6756
idra	-6757
ology	-6758
osure	-6759
▁kald	-6760
inal	-6761
▁pounds	-6762
isc	-6763
▁goal	-6764
▁spray	-6765
cee	-6766
shot	-6767
▁females	-6768
▁oddly	-6769
▁fourth	-6770
▁xavier	-6771
▁legal	-6772
▁loaded	-6773
▁register	-6774
▁lant	-6775
▁aloud	-6776
▁compliment	-6777
▁automatically	-6778
▁flow	-6779
▁grasped	-6780
▁sighing	-6781
▁trailer	-6782
▁continues	-6783
▁blowing	-6784
▁sire	-6785
▁grunt	-6786
▁proceed	-6787
▁thoughtful	-6788
etri	-6789
rete	-6790
eight	-6791
▁scri	-6792
▁colton	-6793
▁demetri	-6794
▁murdered	-6795
▁sunglasses	-6796
▁sou	-6797
▁kaldar	-6798
▁subtle	-6799
▁swimming	-6800
ogen	-6801
▁nuts	-6802
▁skill	-6803
sized	-6804
▁lazy	-6805
▁franc	-6806
▁desert	-6807
▁inclined	-6808
▁jose	-6809
▁sull	-6810
▁wing	-6811
covered	-6812
hunters	-6813
▁collect	-6814
▁emerald	-6815
▁conference	-6816
▁stella	-6817
▁bounced	-6818
▁deciding	-6819
▁nostrils	-6820
▁flung	-6821
▁steam	-6822
▁successful	-6823
his	-6824
▁drama	-6825
▁ryker	-6826
▁cowboy	-6827
▁fairly	-6828
▁bending	-6829
▁sandwich	-6830
▁dece	-6831
▁strokes	-6832
▁floating	-6833
▁mistress	-6834
fire	-6835
agging	-6836
▁juice	-6837
▁floors	-6838
▁gasping	-6839
iter	-6840
▁adop	-6841
uments	-6842
▁stealing	-6843
▁magnificent	-6844
rol	-6845
ension	-6846
▁inevit	-6847
▁tunnel	-6848
▁mansion	-6849
hael	-6850
button	-6851
▁influ	-6852
▁raphael	-6853
▁stabbed	-6854
▁relationships	-6855
▁jenn	-6856
▁scott	-6857
▁guided	-6858
▁hearts	-6859
▁suzanne	-6860
▁traveling	-6861
▁tack	-6862
▁chann	-6863
ep	-6864
sp	-6865
▁eden	-6866
▁finds	-6867
▁nolan	-6868
▁explore	-6869
▁comforting	-6870
▁horiz	-6871
▁illum	-6872
▁twitch	-6873
▁exchanged	-6874
▁mountains	-6875
▁vast	-6876
▁helena	-6877
▁lingered	-6878
▁slim	-6879
▁lac	-6880
icted	-6881
stick	-6882
▁salt	-6883
▁preparing	-6884
▁ali	-6885
▁healing	-6886
lings	-6887
▁jade	-6888
▁backing	-6889
▁oil	-6890
▁rash	-6891
▁hits	-6892
▁foyer	-6893
▁recent	-6894
▁cupping	-6895
▁routine	-6896
▁cuts	-6897
▁spoon	-6898
▁link	-6899
▁based	-6900
▁impressive	-6901
▁heck	-6902
▁gloss	-6903
▁indul	-6904
▁talon	-6905
▁distinct	-6906
▁deadly	-6907
▁flowed	-6908
▁remark	-6909
low	-6910
▁ruby	-6911
▁sale	-6912
▁paced	-6913
▁sissy	-6914
▁avoided	-6915
▁railing	-6916
▁frantically	-6917
▁curtain	-6918
▁pig	-6919
▁everybody	-6920
▁introduced	-6921
▁wider	-6922
▁adorable	-6923
rigg	-6924
▁mouths	-6925
▁replace	-6926
ta	-6927
▁gruff	-6928
▁manager	-6929
▁brightly	-6930
▁properly	-6931
atter	-6932
umpled	-6933
▁reyes	-6934
▁strands	-6935
▁smoothly	-6936
▁whoa	-6937
▁instincts	-6938
▁engagement	-6939
ford	-6940
▁limp	-6941
▁wary	-6942
▁mateo	-6943
▁dancer	-6944
pleas	-6945
▁barg	-6946
▁treas	-6947
▁shocking	-6948
oke	-6949
▁toy	-6950
▁burns	-6951
▁flirt	-6952
▁tasha	-6953
▁overhe	-6954
▁matched	-6955
▁tortured	-6956
▁las	-6957
▁calc	-6958
▁stil	-6959
▁thrill	-6960
▁greeting	-6961
▁arrow	-6962
▁poked	-6963
emon	-6964
▁sco	-6965
▁cudd	-6966
elling	-6967
essert	-6968
▁valky	-6969
▁clenching	-6970
▁suv	-6971
▁accus	-6972
▁keira	-6973
▁wallet	-6974
▁forearm	-6975
▁journey	-6976
▁muffled	-6977
und	-6978
izes	-6979
▁molly	-6980
▁apple	-6981
▁model	-6982
▁dessert	-6983
▁creating	-6984
▁fade	-6985
▁hast	-6986
▁annoyance	-6987
dox	-6988
▁aidan	-6989
▁appropriate	-6990
▁folks	-6991
power	-6992
▁hire	-6993
▁maddox	-6994
▁fragile	-6995
▁describe	-6996
▁scratched	-6997
▁reassuring	-6998
▁dism	-6999
▁rubi	-7000
▁urged	-7001
▁clapped	-7002
▁juliana	-7003
▁smells	-7004
▁surged	-7005
▁holiday	-7006
▁suspicion	-7007
gree	-7008
rina	-7009
keeper	-7010
▁devon	-7011
▁granted	-7012
aphne	-7013
▁gazing	-7014
▁rasped	-7015
▁nipples	-7016
▁trade	-7017
▁blouse	-7018
▁jewelry	-7019
blood	-7020
▁folds	-7021
▁ashley	-7022
▁daphne	-7023
▁strate	-7024
▁concrete	-7025
▁servants	-7026
▁precisely	-7027
▁perfection	-7028
gers	-7029
▁hugging	-7030
▁sweeping	-7031
▁pacing	-7032
▁sariana	-7033
away	-7034
▁hopped	-7035
▁combination	-7036
ardon	-7037
▁beam	-7038
▁kira	-7039
▁sons	-7040
▁directions	-7041
ouch	-7042
▁churn	-7043
▁christopher	-7044
olai	-7045
arek	-7046
believ	-7047
▁chand	-7048
▁zipper	-7049
lect	-7050
▁cara	-7051
▁groom	-7052
▁affected	-7053
aries	-7054
▁lila	-7055
▁quir	-7056
▁snake	-7057
▁announce	-7058
▁assuming	-7059
▁audience	-7060
rous	-7061
ierra	-7062
▁east	-7063
▁worries	-7064
▁grabs	-7065
▁counted	-7066
bell	-7067
unte	-7068
▁advent	-7069
▁awareness	-7070
▁zarek	-7071
▁anybody	-7072
▁annie	-7073
▁player	-7074
ula	-7075
▁damon	-7076
▁souls	-7077
▁volunte	-7078
▁promises	-7079
▁remo	-7080
▁vikt	-7081
▁appreciated	-7082
seat	-7083
▁dred	-7084
▁greg	-7085
▁avery	-7086
ainted	-7087
▁maris	-7088
▁modern	-7089
▁reaper	-7090
▁chamber	-7091
ums	-7092
aren	-7093
▁dod	-7094
yson	-7095
▁breaks	-7096
▁forming	-7097
▁michelle	-7098
▁professor	-7099
▁items	-7100
▁basement	-7101
▁disaster	-7102
▁kam	-7103
after	-7104
▁gemma	-7105
▁chasing	-7106
▁feeding	-7107
▁unbutton	-7108
▁tradition	-7109
▁cott	-7110
▁slice	-7111
▁boxers	-7112
▁coward	-7113
▁pleading	-7114
▁branch	-7115
▁safely	-7116
▁nikolai	-7117
▁shallow	-7118
▁controlled	-7119
▁neal	-7120
▁guide	-7121
▁magical	-7122
▁unlocked	-7123
olyn	-7124
ooled	-7125
▁cheap	-7126
lie	-7127
▁ming	-7128
▁community	-7129
▁bald	-7130
▁steven	-7131
▁typical	-7132
cery	-7133
inity	-7134
▁qual	-7135
▁mommy	-7136
▁earned	-7137
▁dreaming	-7138
▁severance	-7139
enne	-7140
▁daily	-7141
▁susan	-7142
▁protested	-7143
▁thoroughly	-7144
▁roses	-7145
▁wolves	-7146
▁inviting	-7147
▁dean	-7148
▁murmur	-7149
▁bol	-7150
▁feb	-7151
▁raven	-7152
▁unknown	-7153
▁adjusted	-7154
▁mud	-7155
formed	-7156
▁cidra	-7157
▁believing	-7158
▁va	-7159
▁fulf	-7160
▁lush	-7161
▁foreign	-7162
astically	-7163
rer	-7164
eared	-7165
▁inher	-7166
▁govern	-7167
▁slides	-7168
▁highway	-7169
ienne	-7170
▁lighting	-7171
▁genuinely	-7172
▁thrusting	-7173
▁withdrew	-7174
arel	-7175
▁soldiers	-7176
uel	-7177
▁stable	-7178
▁taller	-7179
▁sincere	-7180
▁sweetie	-7181
▁generous	-7182
▁merc	-7183
▁brutal	-7184
▁fortune	-7185
▁occasionally	-7186
illa	-7187
▁roke	-7188
▁cough	-7189
▁consequences	-7190
▁instructions	-7191
ae	-7192
▁tiff	-7193
▁sabin	-7194
▁studio	-7195
uther	-7196
▁denise	-7197
▁ecstasy	-7198
▁fiercely	-7199
▁awe	-7200
▁env	-7201
▁tob	-7202
▁cringed	-7203
▁entering	-7204
▁specific	-7205
▁committed	-7206
▁spi	-7207
▁savage	-7208
olded	-7209
▁unha	-7210
▁gaped	-7211
▁imogen	-7212
▁suits	-7213
▁directed	-7214
▁descended	-7215
▁ast	-7216
▁anth	-7217
▁rack	-7218
▁toler	-7219
▁ripping	-7220
▁curtains	-7221
▁corrected	-7222
▁shore	-7223
▁soaked	-7224
▁quarter	-7225
▁student	-7226
▁hovering	-7227
fr	-7228
▁arc	-7229
▁syl	-7230
▁chey	-7231
▁dragon	-7232
▁offers	-7233
▁dresses	-7234
▁prospect	-7235
▁snapping	-7236
▁disgusted	-7237
▁sworn	-7238
▁booker	-7239
▁bottles	-7240
▁judging	-7241
▁tasting	-7242
▁betrayal	-7243
▁unh	-7244
▁spill	-7245
▁penthouse	-7246
▁hazel	-7247
▁italian	-7248
▁vaguely	-7249
▁unbeliev	-7250
▁nightmares	-7251
▁brad	-7252
▁thrusts	-7253
▁winning	-7254
▁messy	-7255
▁chains	-7256
▁liking	-7257
▁backseat	-7258
▁financial	-7259
they	-7260
▁acade	-7261
assion	-7262
▁kyrian	-7263
▁squinted	-7264
▁chip	-7265
▁garg	-7266
▁heaved	-7267
▁valkyrie	-7268
▁cassandra	-7269
▁introduce	-7270
▁officially	-7271
▁polished	-7272
▁jan	-7273
▁izzy	-7274
▁sniffed	-7275
▁spilling	-7276
▁cassie	-7277
uish	-7278
▁dies	-7279
▁seed	-7280
▁deepened	-7281
▁partners	-7282
▁signific	-7283
which	-7284
▁nause	-7285
▁sadly	-7286
arms	-7287
▁aura	-7288
▁skip	-7289
ifully	-7290
▁cabinet	-7291
▁carriage	-7292
▁liv	-7293
▁pil	-7294
bbles	-7295
▁gifts	-7296
▁efforts	-7297
nec	-7298
▁excl	-7299
▁flor	-7300
making	-7301
▁fingern	-7302
▁loyalty	-7303
▁remains	-7304
▁explosion	-7305
▁exquisite	-7306
▁temporary	-7307
ixture	-7308
▁reacted	-7309
▁skipped	-7310
▁backpack	-7311
▁crisp	-7312
▁sleeves	-7313
▁flirting	-7314
▁sarcasm	-7315
▁blunt	-7316
▁benefit	-7317
▁frankie	-7318
▁lect	-7319
▁kenny	-7320
▁expand	-7321
▁relent	-7322
resh	-7323
▁jab	-7324
▁pip	-7325
▁emphas	-7326
▁seductive	-7327
▁flare	-7328
▁wraps	-7329
▁healed	-7330
▁wasted	-7331
oon	-7332
▁jennifer	-7333
▁continuing	-7334
▁scor	-7335
▁sports	-7336
▁mocking	-7337
three	-7338
▁naughty	-7339
▁savanna	-7340
▁function	-7341
▁encounter	-7342
▁bice	-7343
▁psychic	-7344
▁intentions	-7345
▁flaw	-7346
▁glowed	-7347
▁kil	-7348
▁grey	-7349
▁tipt	-7350
▁hyster	-7351
▁permanent	-7352
▁possession	-7353
▁mini	-7354
▁confirm	-7355
▁accepting	-7356
▁tat	-7357
▁shir	-7358
cheres	-7359
▁jenna	-7360
▁stomped	-7361
phan	-7362
▁dash	-7363
▁nancy	-7364
▁salad	-7365
▁gargoy	-7366
▁lasted	-7367
▁abandon	-7368
▁headache	-7369
hest	-7370
stone	-7371
▁anne	-7372
▁allie	-7373
▁dazed	-7374
▁helps	-7375
▁thane	-7376
▁cameras	-7377
▁mencheres	-7378
▁mes	-7379
aware	-7380
▁dove	-7381
▁dealt	-7382
▁sipped	-7383
▁clipped	-7384
▁outrage	-7385
▁mistakes	-7386
▁bartender	-7387
▁countered	-7388
▁terrifying	-7389
▁moans	-7390
▁severe	-7391
▁hovered	-7392
▁mysterious	-7393
▁swallowing	-7394
outhed	-7395
▁crit	-7396
▁kade	-7397
▁campus	-7398
▁intently	-7399
▁fier	-7400
▁term	-7401
racting	-7402
▁lovers	-7403
▁sensing	-7404
imil	-7405
▁product	-7406
▁ki	-7407
▁replies	-7408
▁romance	-7409
▁odds	-7410
ounted	-7411
▁require	-7412
▁indicated	-7413
inda	-7414
outs	-7415
▁meth	-7416
▁ribb	-7417
▁napkin	-7418
▁tact	-7419
▁alpha	-7420
▁shred	-7421
▁swirling	-7422
▁fucked	-7423
▁theory	-7424
▁furrowed	-7425
▁lowering	-7426
▁maneu	-7427
▁regarded	-7428
lah	-7429
▁negot	-7430
▁peeked	-7431
▁dominique	-7432
▁rif	-7433
ribut	-7434
▁billion	-7435
▁vicious	-7436
▁ree	-7437
▁marty	-7438
▁darker	-7439
▁ensure	-7440
▁scoffed	-7441
▁tremble	-7442
▁victory	-7443
▁piercing	-7444
▁rhett	-7445
▁sorts	-7446
▁sparkling	-7447
▁hyp	-7448
▁equal	-7449
▁imper	-7450
▁assign	-7451
▁bodygu	-7452
▁whip	-7453
▁rit	-7454
▁lana	-7455
▁bills	-7456
▁creek	-7457
▁joked	-7458
▁haze	-7459
▁bites	-7460
cr	-7461
▁curb	-7462
▁cloak	-7463
▁tighten	-7464
▁clinging	-7465
▁offended	-7466
▁hauled	-7467
amps	-7468
▁uneasy	-7469
▁ille	-7470
▁wishes	-7471
▁perched	-7472
hip	-7473
▁ped	-7474
▁jael	-7475
▁tiss	-7476
giving	-7477
▁puppy	-7478
▁zacharel	-7479
ville	-7480
▁slit	-7481
▁elder	-7482
▁stung	-7483
▁framed	-7484
▁prayed	-7485
▁skylar	-7486
▁military	-7487
▁bax	-7488
▁estab	-7489
▁picks	-7490
▁sheep	-7491
▁retorted	-7492
▁mex	-7493
entin	-7494
▁grandp	-7495
▁grinding	-7496
▁nak	-7497
▁honesty	-7498
▁politely	-7499
▁snuggled	-7500
▁cautiously	-7501
top	-7502
▁quentin	-7503
▁meetings	-7504
riger	-7505
▁glorious	-7506
▁bug	-7507
▁sweetly	-7508
celyn	-7509
▁mona	-7510
udge	-7511
▁cade	-7512
▁locks	-7513
▁audrey	-7514
▁noticing	-7515
▁releasing	-7516
field	-7517
▁civil	-7518
▁darius	-7519
▁refriger	-7520
oen	-7521
▁symb	-7522
▁ashton	-7523
▁scooted	-7524
ctors	-7525
▁celest	-7526
▁jocelyn	-7527
▁joining	-7528
▁gleaming	-7529
▁delighted	-7530
long	-7531
▁lic	-7532
▁rico	-7533
▁cares	-7534
▁murmurs	-7535
etic	-7536
▁saun	-7537
▁ridge	-7538
▁finishing	-7539
▁deuce	-7540
▁resent	-7541
▁jerking	-7542
▁scooped	-7543
▁fortunately	-7544
▁kad	-7545
▁status	-7546
▁worthy	-7547
▁occupied	-7548
strom	-7549
▁calder	-7550
▁pey	-7551
▁aiden	-7552
▁denied	-7553
▁shutting	-7554
▁contained	-7555
▁desired	-7556
▁guarant	-7557
▁swirled	-7558
mar	-7559
▁ku	-7560
▁alana	-7561
▁sober	-7562
▁happier	-7563
aches	-7564
▁appet	-7565
▁laced	-7566
▁strap	-7567
▁degree	-7568
▁newspaper	-7569
▁bew	-7570
▁daemon	-7571
▁sleepy	-7572
▁blocked	-7573
▁witches	-7574
▁sensations	-7575
▁greek	-7576
▁bubble	-7577
▁personality	-7578
▁mirr	-7579
▁griff	-7580
▁lori	-7581
▁stew	-7582
gation	-7583
▁coast	-7584
▁sang	-7585
▁phoen	-7586
▁crimson	-7587
▁secretary	-7588
▁passionate	-7589
hers	-7590
bones	-7591
ifying	-7592
▁cottage	-7593
▁yel	-7594
thias	-7595
▁bikin	-7596
▁email	-7597
hile	-7598
ailed	-7599
▁arth	-7600
▁trusting	-7601
pend	-7602
huinn	-7603
▁educ	-7604
▁site	-7605
▁dates	-7606
▁phoenix	-7607
▁nudged	-7608
▁qhuinn	-7609
▁matthias	-7610
▁seemingly	-7611
▁elec	-7612
▁symbol	-7613
▁internet	-7614
▁frequ	-7615
▁glist	-7616
▁arrival	-7617
▁strangers	-7618
incing	-7619
▁bracelet	-7620
fits	-7621
▁kaia	-7622
▁leon	-7623
akable	-7624
▁discussing	-7625
gia	-7626
▁biz	-7627
▁medic	-7628
▁asshole	-7629
▁sometime	-7630
▁technically	-7631
ooling	-7632
▁praying	-7633
▁tracing	-7634
▁katherine	-7635
▁arrangement	-7636
▁tee	-7637
water	-7638
▁ronan	-7639
▁registered	-7640
▁kas	-7641
▁lola	-7642
▁sorrow	-7643
▁motorcy	-7644
▁visited	-7645
▁trailing	-7646
▁monst	-7647
▁anthony	-7648
▁nah	-7649
▁tits	-7650
▁india	-7651
▁tiffany	-7652
▁trigger	-7653
▁bron	-7654
▁coax	-7655
▁flex	-7656
▁admire	-7657
▁elle	-7658
▁achie	-7659
▁range	-7660
▁angrily	-7661
▁chewed	-7662
▁clever	-7663
▁striking	-7664
▁appl	-7665
▁strolled	-7666
ani	-7667
▁shoe	-7668
▁quen	-7669
▁steve	-7670
▁floated	-7671
▁spectac	-7672
isk	-7673
▁doz	-7674
anches	-7675
▁ninet	-7676
▁league	-7677
▁wounded	-7678
▁conversations	-7679
riff	-7680
▁cora	-7681
rose	-7682
▁fled	-7683
▁sweaty	-7684
▁caressing	-7685
▁ox	-7686
▁hoo	-7687
▁claud	-7688
▁minds	-7689
▁zayne	-7690
▁catches	-7691
▁frightening	-7692
made	-7693
▁profile	-7694
▁blocking	-7695
▁differently	-7696
ucking	-7697
▁bearing	-7698
▁pictured	-7699
▁sped	-7700
▁capture	-7701
▁handled	-7702
▁counts	-7703
▁darlin	-7704
▁counting	-7705
▁media	-7706
▁daring	-7707
▁repres	-7708
▁rumors	-7709
▁brianna	-7710
▁cursing	-7711
▁pumping	-7712
▁transl	-7713
▁vivienne	-7714
▁film	-7715
▁stray	-7716
▁sierra	-7717
▁solo	-7718
hearted	-7719
▁hating	-7720
▁freaked	-7721
▁accidentally	-7722
cakes	-7723
hew	-7724
▁grade	-7725
▁warren	-7726
▁playful	-7727
▁blankets	-7728
▁designed	-7729
▁decorated	-7730
▁willingly	-7731
chan	-7732
▁sleek	-7733
▁states	-7734
▁tape	-7735
▁title	-7736
▁dozens	-7737
▁absence	-7738
arre	-7739
▁dizzy	-7740
▁beaten	-7741
▁resemb	-7742
▁fascinated	-7743
robe	-7744
▁irre	-7745
▁solution	-7746
▁oblivious	-7747
ags	-7748
▁wreck	-7749
▁hallie	-7750
▁texted	-7751
▁attempting	-7752
▁surroundings	-7753
▁merry	-7754
▁eyeing	-7755
▁greater	-7756
▁whimpered	-7757
▁refrigerator	-7758
cont	-7759
▁compre	-7760
ervation	-7761
▁tattoos	-7762
▁fund	-7763
▁garb	-7764
▁april	-7765
▁penny	-7766
▁treatment	-7767
▁kiara	-7768
▁pitch	-7769
this	-7770
▁raked	-7771
▁blades	-7772
▁softness	-7773
▁corn	-7774
▁blown	-7775
▁execut	-7776
▁helmet	-7777
▁injuries	-7778
▁bump	-7779
▁rein	-7780
▁equip	-7781
▁danika	-7782
▁senior	-7783
▁referring	-7784
ida	-7785
▁troy	-7786
▁gracie	-7787
▁candles	-7788
▁laund	-7789
▁sadie	-7790
▁brynne	-7791
▁pained	-7792
▁grocery	-7793
▁contents	-7794
▁elab	-7795
▁load	-7796
▁lucah	-7797
▁serge	-7798
▁wendy	-7799
▁marched	-7800
▁possessive	-7801
oms	-7802
▁ego	-7803
▁ham	-7804
▁lahn	-7805
▁jesse	-7806
▁motel	-7807
▁hopeful	-7808
▁scal	-7809
▁ounce	-7810
▁cheyenne	-7811
▁leapt	-7812
inkling	-7813
▁chassie	-7814
▁eagerly	-7815
▁francis	-7816
▁popular	-7817
▁abilities	-7818
▁bray	-7819
▁journal	-7820
conscious	-7821
▁relaxing	-7822
cut	-7823
▁stacy	-7824
▁peyton	-7825
▁teenager	-7826
ishly	-7827
▁joseph	-7828
omi	-7829
▁gang	-7830
▁portal	-7831
▁motions	-7832
ivan	-7833
▁overt	-7834
▁wrest	-7835
▁awhile	-7836
▁nothin	-7837
▁brielle	-7838
▁results	-7839
▁scraped	-7840
▁caroline	-7841
ada	-7842
▁sabine	-7843
▁disappro	-7844
▁tempting	-7845
▁limo	-7846
▁goose	-7847
▁tones	-7848
▁strand	-7849
▁swayed	-7850
▁rational	-7851
▁erup	-7852
▁cruise	-7853
▁england	-7854
▁freezing	-7855
▁focusing	-7856
itated	-7857
▁choking	-7858
▁melissa	-7859
▁recalled	-7860
▁sweetness	-7861
laim	-7862
▁mitch	-7863
▁accused	-7864
▁greyson	-7865
▁baseball	-7866
▁employees	-7867
▁bizarre	-7868
▁located	-7869
▁jolt	-7870
▁bouncing	-7871
▁discussed	-7872
▁injury	-7873
▁jessica	-7874
ipher	-7875
▁amun	-7876
▁laws	-7877
▁slipp	-7878
▁kitten	-7879
▁carolyn	-7880
▁explaining	-7881
▁related	-7882
▁equipment	-7883
▁arthur	-7884
ayna	-7885
sive	-7886
▁lid	-7887
▁spots	-7888
▁unique	-7889
▁paperwork	-7890
▁heir	-7891
▁ours	-7892
▁persu	-7893
amiliar	-7894
▁inward	-7895
▁restless	-7896
end	-7897
retched	-7898
ody	-7899
▁regin	-7900
▁shelter	-7901
▁oct	-7902
▁tay	-7903
ulting	-7904
▁tripp	-7905
▁appeal	-7906
▁ticked	-7907
▁disappearing	-7908
enth	-7909
▁gig	-7910
▁jude	-7911
▁sumi	-7912
▁starving	-7913
▁thankful	-7914
▁insp	-7915
▁zero	-7916
▁guitar	-7917
▁huffed	-7918
▁scenar	-7919
▁drawled	-7920
▁celebrate	-7921
▁gratitude	-7922
▁innocence	-7923
▁convincing	-7924
▁seek	-7925
▁statue	-7926
▁envelop	-7927
▁artif	-7928
▁alayna	-7929
▁fading	-7930
▁flipping	-7931
even	-7932
▁online	-7933
▁denying	-7934
▁glittering	-7935
▁blocks	-7936
ification	-7937
erve	-7938
then	-7939
▁nape	-7940
▁sanct	-7941
▁screec	-7942
▁ax	-7943
rell	-7944
▁awa	-7945
▁flame	-7946
▁novel	-7947
▁shone	-7948
▁veget	-7949
▁buzzed	-7950
▁reflected	-7951
▁bikini	-7952
▁drifting	-7953
cap	-7954
▁dump	-7955
▁craving	-7956
▁rattled	-7957
▁daylight	-7958
gra	-7959
▁duck	-7960
▁diver	-7961
▁sparks	-7962
▁blazing	-7963
▁mob	-7964
▁undo	-7965
▁revel	-7966
▁creepy	-7967
▁pauses	-7968
▁plunged	-7969
colm	-7970
▁pand	-7971
▁casey	-7972
▁lethal	-7973
▁seized	-7974
▁demands	-7975
mod	-7976
▁gazes	-7977
▁aimed	-7978
▁noble	-7979
▁laylah	-7980
▁immediate	-7981
▁virg	-7982
▁jacob	-7983
▁interior	-7984
▁inevitable	-7985
▁investigation	-7986
gued	-7987
▁lame	-7988
▁malcolm	-7989
▁visiting	-7990
▁neighbors	-7991
▁commitment	-7992
▁bein	-7993
▁lod	-7994
▁hiss	-7995
▁intimacy	-7996
▁shivering	-7997
▁prey	-7998
zzling	-7999
▁gallery	-8000
▁suggestion	-8001
▁emotionally	-8002
▁lounge	-8003
cape	-8004
▁calvin	-8005
▁lighter	-8006
ggy	-8007
▁barrier	-8008
▁charles	-8009
▁forgetting	-8010
▁mage	-8011
▁socks	-8012
▁halted	-8013
▁exagger	-8014
▁witnessed	-8015
▁raz	-8016
▁muse	-8017
▁nail	-8018
▁coven	-8019
▁desig	-8020
▁mutter	-8021
▁cradled	-8022
▁showered	-8023
▁dor	-8024
▁pry	-8025
▁cult	-8026
▁tate	-8027
▁ace	-8028
▁exerc	-8029
▁assass	-8030
▁session	-8031
▁greatest	-8032
▁bis	-8033
ounded	-8034
▁struct	-8035
▁flicker	-8036
▁tumbled	-8037
▁guardian	-8038
▁gleam	-8039
▁stove	-8040
▁tower	-8041
▁guarantee	-8042
pro	-8043
▁lege	-8044
▁compr	-8045
▁stake	-8046
▁travis	-8047
▁government	-8048
▁choke	-8049
▁scalp	-8050
▁widen	-8051
▁artist	-8052
▁shrieked	-8053
▁encourage	-8054
▁recovered	-8055
box	-8056
alley	-8057
▁anch	-8058
▁ware	-8059
▁bedside	-8060
▁crooked	-8061
▁peering	-8062
▁circling	-8063
▁identity	-8064
▁straining	-8065
▁momentarily	-8066
▁burden	-8067
▁pausing	-8068
▁absently	-8069
esy	-8070
iple	-8071
child	-8072
▁sund	-8073
xton	-8074
▁cue	-8075
uttered	-8076
▁despair	-8077
▁maintain	-8078
▁terr	-8079
▁abdom	-8080
▁branches	-8081
▁teaching	-8082
ei	-8083
▁jaxx	-8084
▁aimee	-8085
▁packing	-8086
▁increasing	-8087
▁que	-8088
inate	-8089
▁chad	-8090
▁gina	-8091
▁doctors	-8092
acted	-8093
▁cait	-8094
▁alien	-8095
▁spectacular	-8096
▁ber	-8097
▁glim	-8098
▁tant	-8099
▁logic	-8100
▁clench	-8101
▁ticket	-8102
▁mixture	-8103
▁perfume	-8104
itted	-8105
▁bore	-8106
▁alexei	-8107
▁bruises	-8108
▁laundry	-8109
▁servant	-8110
▁launched	-8111
▁compassion	-8112
▁cases	-8113
▁maxim	-8114
▁dialed	-8115
▁temples	-8116
▁unaware	-8117
imer	-8118
▁nep	-8119
▁homes	-8120
▁madness	-8121
▁fabulous	-8122
▁questioned	-8123
hab	-8124
wolf	-8125
▁thus	-8126
ishment	-8127
▁indust	-8128
▁locking	-8129
▁tapping	-8130
riel	-8131
▁shelf	-8132
▁wryly	-8133
▁aggress	-8134
▁cimil	-8135
▁neatly	-8136
▁dangling	-8137
pass	-8138
▁emp	-8139
▁patch	-8140
▁spur	-8141
▁admir	-8142
▁value	-8143
▁tenderness	-8144
brina	-8145
▁neut	-8146
▁sabrina	-8147
▁positioned	-8148
▁electricity	-8149
▁kinda	-8150
▁offense	-8151
▁resisted	-8152
▁pup	-8153
itting	-8154
▁coinc	-8155
together	-8156
▁pleaded	-8157
ata	-8158
free	-8159
uding	-8160
▁lion	-8161
▁groin	-8162
▁jaxon	-8163
▁lessons	-8164
▁quality	-8165
▁freeze	-8166
▁shitty	-8167
▁resolve	-8168
▁artifact	-8169
▁christina	-8170
fly	-8171
▁birds	-8172
▁skinny	-8173
▁congratulations	-8174
▁overcome	-8175
six	-8176
▁eli	-8177
abelle	-8178
▁deserves	-8179
▁curiously	-8180
▁photograp	-8181
bber	-8182
▁barb	-8183
▁negoti	-8184
▁stormed	-8185
▁disturbing	-8186
pher	-8187
▁paj	-8188
▁fila	-8189
▁sobs	-8190
▁taylor	-8191
▁admired	-8192
eez	-8193
girl	-8194
istol	-8195
▁delay	-8196
▁crushing	-8197
▁unhappy	-8198
▁claiming	-8199
▁jem	-8200
▁walter	-8201
▁griffin	-8202
▁reasonable	-8203
▁fen	-8204
▁paw	-8205
acles	-8206
▁escort	-8207
▁loosened	-8208
▁disgusting	-8209
▁reen	-8210
▁grounds	-8211
▁channing	-8212
▁temptation	-8213
▁tomm	-8214
▁bumps	-8215
▁duval	-8216
▁venge	-8217
▁potato	-8218
▁reluctant	-8219
comed	-8220
▁mating	-8221
▁melting	-8222
▁arrested	-8223
▁enthusiasm	-8224
uled	-8225
ishop	-8226
▁leaped	-8227
▁tamara	-8228
▁gargoyle	-8229
▁scul	-8230
▁shap	-8231
▁domini	-8232
▁cousins	-8233
▁secretly	-8234
ssa	-8235
urd	-8236
▁rug	-8237
agers	-8238
▁marco	-8239
▁tobias	-8240
▁urgent	-8241
▁georgia	-8242
char	-8243
▁method	-8244
fuck	-8245
▁bared	-8246
▁beard	-8247
▁reminds	-8248
▁incredulous	-8249
aa	-8250
▁bobby	-8251
▁marie	-8252
ini	-8253
arer	-8254
▁pel	-8255
▁unz	-8256
▁inex	-8257
▁fluff	-8258
▁slacks	-8259
▁figures	-8260
▁kneeling	-8261
▁tingling	-8262
▁brew	-8263
▁mold	-8264
▁obsc	-8265
▁chips	-8266
▁march	-8267
▁cerise	-8268
▁hotter	-8269
▁mechan	-8270
▁wandering	-8271
▁eur	-8272
▁sche	-8273
▁hates	-8274
▁stance	-8275
▁bargain	-8276
▁noises	-8277
▁colored	-8278
▁pierced	-8279
▁jean	-8280
filled	-8281
▁chased	-8282
▁doubts	-8283
▁criminal	-8284
▁motorcycle	-8285
rad	-8286
▁vom	-8287
▁laura	-8288
▁angels	-8289
▁gabriel	-8290
▁ordinary	-8291
gues	-8292
▁web	-8293
▁closes	-8294
▁bund	-8295
▁sanity	-8296
▁selling	-8297
▁fantasies	-8298
▁dip	-8299
▁noon	-8300
▁longed	-8301
▁resort	-8302
▁shades	-8303
▁strict	-8304
iano	-8305
moon	-8306
idual	-8307
▁ages	-8308
▁inqu	-8309
▁exited	-8310
▁mesmer	-8311
▁comments	-8312
▁supplies	-8313
athed	-8314
▁haid	-8315
▁math	-8316
hy	-8317
ench	-8318
▁aug	-8319
▁oak	-8320
▁bits	-8321
ologet	-8322
▁carrie	-8323
▁seduce	-8324
▁grimace	-8325
▁concentrated	-8326
sity	-8327
▁jagr	-8328
▁sizz	-8329
▁nephew	-8330
▁hastily	-8331
▁soldier	-8332
▁scarf	-8333
▁slips	-8334
▁bishop	-8335
▁staggered	-8336
ulet	-8337
▁err	-8338
▁obey	-8339
▁tory	-8340
▁agents	-8341
▁jewell	-8342
▁shouts	-8343
▁moaning	-8344
▁ballroom	-8345
▁independ	-8346
▁elise	-8347
▁prize	-8348
▁tammy	-8349
▁horm	-8350
▁pump	-8351
▁root	-8352
▁beamed	-8353
▁lunged	-8354
▁delaney	-8355
ffe	-8356
sox	-8357
▁raging	-8358
▁silken	-8359
▁remarked	-8360
▁streaming	-8361
▁pic	-8362
▁proposal	-8363
▁terribly	-8364
▁fingernails	-8365
▁holt	-8366
▁mara	-8367
▁sunny	-8368
▁virgil	-8369
▁stained	-8370
acey	-8371
somet	-8372
▁alle	-8373
▁bachel	-8374
▁sprawled	-8375
ghed	-8376
▁tel	-8377
mates	-8378
▁blay	-8379
▁kadie	-8380
▁trial	-8381
▁assault	-8382
▁nuzzled	-8383
▁yanking	-8384
▁described	-8385
mn	-8386
▁layer	-8387
▁tucking	-8388
▁cheating	-8389
▁consciousness	-8390
▁tops	-8391
▁zone	-8392
▁gross	-8393
▁horizon	-8394
▁prisoner	-8395
▁possibilities	-8396
fted	-8397
umes	-8398
gging	-8399
▁mour	-8400
▁pulsing	-8401
▁visions	-8402
▁exposing	-8403
ige	-8404
flies	-8405
▁daunt	-8406
▁patio	-8407
▁fisted	-8408
▁daimons	-8409
▁backyard	-8410
▁kindness	-8411
▁peaceful	-8412
▁copy	-8413
▁didnt	-8414
▁snick	-8415
▁locker	-8416
▁humming	-8417
▁kingdom	-8418
▁choosing	-8419
▁regretted	-8420
▁marg	-8421
▁unst	-8422
▁caine	-8423
ceded	-8424
olved	-8425
▁signal	-8426
▁muscled	-8427
▁restraint	-8428
▁indication	-8429
▁diner	-8430
▁overly	-8431
gun	-8432
ause	-8433
quar	-8434
zzie	-8435
▁stam	-8436
▁intox	-8437
▁cherry	-8438
▁arching	-8439
▁initial	-8440
▁nineteen	-8441
▁waistband	-8442
▁temperature	-8443
▁example	-8444
mos	-8445
▁lys	-8446
faced	-8447
▁drun	-8448
▁slack	-8449
▁sympat	-8450
▁captive	-8451
▁erupted	-8452
▁designer	-8453
▁collection	-8454
▁acknowledged	-8455
step	-8456
▁mim	-8457
▁suic	-8458
▁attor	-8459
▁walker	-8460
▁welcomed	-8461
gio	-8462
gance	-8463
▁karen	-8464
▁woken	-8465
▁stones	-8466
▁stuart	-8467
▁hopeless	-8468
▁impatiently	-8469
ram	-8470
▁kir	-8471
▁vick	-8472
▁reese	-8473
▁wealthy	-8474
▁dauntless	-8475
▁plas	-8476
▁dashed	-8477
atives	-8478
▁guarded	-8479
▁passage	-8480
▁sheriff	-8481
akin	-8482
▁gary	-8483
▁soothe	-8484
▁mistaken	-8485
fact	-8486
unate	-8487
▁rapid	-8488
▁stride	-8489
elope	-8490
▁cafe	-8491
▁lizzie	-8492
▁simone	-8493
▁beloved	-8494
▁seattle	-8495
▁customers	-8496
▁influence	-8497
▁conclusion	-8498
▁rue	-8499
▁angus	-8500
▁bucks	-8501
▁calmed	-8502
▁downward	-8503
▁shiftertown	-8504
▁lec	-8505
▁accur	-8506
▁gulped	-8507
▁luxury	-8508
▁seam	-8509
▁blows	-8510
▁disag	-8511
▁males	-8512
▁fitting	-8513
▁trenton	-8514
▁flexed	-8515
▁abdomen	-8516
▁echoing	-8517
▁ded	-8518
▁beau	-8519
▁rail	-8520
aration	-8521
▁contrast	-8522
▁kidnapped	-8523
lit	-8524
▁lids	-8525
▁sage	-8526
▁todd	-8527
▁belief	-8528
ables	-8529
iments	-8530
because	-8531
▁peeled	-8532
▁drowning	-8533
iggo	-8534
▁radi	-8535
▁verl	-8536
▁virt	-8537
▁wiggled	-8538
▁downtown	-8539
▁sneaking	-8540
▁exhaustion	-8541
cience	-8542
▁folding	-8543
▁teenage	-8544
lined	-8545
▁stee	-8546
▁employee	-8547
▁humiliation	-8548
ocks	-8549
▁clip	-8550
▁sail	-8551
▁cocky	-8552
▁flutter	-8553
▁thanked	-8554
▁accompan	-8555
occ	-8556
▁nef	-8557
▁pudd	-8558
▁playfully	-8559
▁violently	-8560
▁bon	-8561
▁sales	-8562
▁viggo	-8563
▁groans	-8564
▁academy	-8565
taking	-8566
▁basis	-8567
▁failure	-8568
▁stirring	-8569
▁ay	-8570
▁jar	-8571
▁irres	-8572
▁maddy	-8573
▁timing	-8574
▁wetness	-8575
▁crawling	-8576
▁intelligent	-8577
oldo	-8578
▁pine	-8579
▁seet	-8580
▁sele	-8581
▁newly	-8582
▁unfamiliar	-8583
anes	-8584
▁gates	-8585
▁koldo	-8586
▁endure	-8587
▁tanned	-8588
▁evidently	-8589
▁sealed	-8590
▁sullivan	-8591
▁constantij	-8592
▁flashlight	-8593
▁billionaire	-8594
ooping	-8595
▁analy	-8596
▁pursed	-8597
▁shifts	-8598
▁heavens	-8599
▁license	-8600
▁ral	-8601
there	-8602
▁basic	-8603
▁illegal	-8604
▁senator	-8605
▁watches	-8606
▁giggling	-8607
▁backwards	-8608
▁constantijin	-8609
uge	-8610
leen	-8611
▁facts	-8612
▁victims	-8613
▁jasper	-8614
▁america	-8615
ware	-8616
▁vow	-8617
▁simi	-8618
usions	-8619
▁rosie	-8620
onsense	-8621
▁flinch	-8622
▁sobbing	-8623
▁siblings	-8624
icient	-8625
ustered	-8626
▁blamed	-8627
▁belongs	-8628
▁element	-8629
▁dramatic	-8630
▁benn	-8631
▁puzzled	-8632
▁verlaine	-8633
▁melo	-8634
▁removing	-8635
▁ruthless	-8636
▁pills	-8637
▁safer	-8638
▁trous	-8639
▁laci	-8640
itches	-8641
▁hills	-8642
▁valer	-8643
▁oldest	-8644
▁antonio	-8645
▁ultimate	-8646
▁startling	-8647
isha	-8648
ciously	-8649
ifically	-8650
ursday	-8651
natural	-8652
▁warily	-8653
▁amusing	-8654
kell	-8655
▁sly	-8656
▁sprang	-8657
▁tingle	-8658
▁thursday	-8659
▁defensive	-8660
▁paintings	-8661
iron	-8662
▁dil	-8663
chair	-8664
▁peek	-8665
▁till	-8666
▁limit	-8667
▁testing	-8668
▁lipstick	-8669
▁lysander	-8670
▁penelope	-8671
handed	-8672
▁armor	-8673
▁confession	-8674
who	-8675
▁gail	-8676
▁feral	-8677
▁uncont	-8678
ignation	-8679
iago	-8680
amble	-8681
▁atop	-8682
▁unner	-8683
chal	-8684
▁plo	-8685
▁clin	-8686
▁route	-8687
▁weigh	-8688
▁bruised	-8689
▁performance	-8690
▁mah	-8691
▁stry	-8692
ending	-8693
▁gasps	-8694
▁gaping	-8695
▁destiny	-8696
▁variety	-8697
▁shuddering	-8698
quet	-8699
▁sixty	-8700
▁fidget	-8701
ai	-8702
lei	-8703
▁sergio	-8704
▁valley	-8705
▁complain	-8706
icho	-8707
ties	-8708
▁slut	-8709
iancee	-8710
▁youth	-8711
▁pumped	-8712
▁authority	-8713
ories	-8714
phere	-8715
▁fiery	-8716
▁rashid	-8717
▁shirts	-8718
▁swiped	-8719
ological	-8720
▁partially	-8721
▁adds	-8722
▁ruff	-8723
umbles	-8724
▁europe	-8725
▁interro	-8726
▁santiago	-8727
▁gentlemen	-8728
▁underground	-8729
iser	-8730
orse	-8731
▁hudd	-8732
▁pole	-8733
▁tina	-8734
▁bacon	-8735
▁gravel	-8736
▁honeymoon	-8737
aving	-8738
▁ties	-8739
▁activity	-8740
idal	-8741
▁conqu	-8742
▁article	-8743
▁lorelei	-8744
▁stryker	-8745
▁dise	-8746
▁doug	-8747
▁cezar	-8748
▁sticky	-8749
nic	-8750
roft	-8751
▁navy	-8752
▁fount	-8753
▁slung	-8754
▁messing	-8755
blue	-8756
iope	-8757
▁myka	-8758
▁ryd	-8759
▁dign	-8760
▁therapy	-8761
▁dismissed	-8762
resa	-8763
▁grady	-8764
▁unwilling	-8765
▁complained	-8766
▁discomfort	-8767
ighed	-8768
poken	-8769
▁needle	-8770
▁excuses	-8771
arian	-8772
▁piano	-8773
▁teresa	-8774
▁urgency	-8775
erted	-8776
▁kess	-8777
▁yank	-8778
▁amaze	-8779
▁edged	-8780
▁butler	-8781
▁unbear	-8782
▁cracking	-8783
▁distress	-8784
▁mortimer	-8785
▁veron	-8786
imately	-8787
▁blaire	-8788
▁wander	-8789
▁doorbell	-8790
▁somethin	-8791
▁intrigued	-8792
▁collected	-8793
while	-8794
▁brink	-8795
▁subst	-8796
▁angled	-8797
▁fellow	-8798
▁cushion	-8799
▁nibbled	-8800
bow	-8801
itors	-8802
▁skim	-8803
ulsion	-8804
▁ritual	-8805
▁monitor	-8806
▁nonchal	-8807
▁strings	-8808
▁blushing	-8809
occup	-8810
▁flee	-8811
▁zeus	-8812
anting	-8813
▁unle	-8814
▁naive	-8815
▁robbie	-8816
▁transp	-8817
▁charges	-8818
▁shelves	-8819
▁groaning	-8820
▁underworld	-8821
pered	-8822
▁lane	-8823
▁buzzing	-8824
▁faction	-8825
▁hardness	-8826
▁elaborate	-8827
▁instructed	-8828
amas	-8829
▁dock	-8830
▁toys	-8831
▁cement	-8832
▁bennett	-8833
▁punished	-8834
▁squealed	-8835
▁headboard	-8836
inkle	-8837
▁veil	-8838
▁bryan	-8839
▁snuck	-8840
▁quarters	-8841
▁furiously	-8842
▁conscience	-8843
ari	-8844
▁lass	-8845
▁outs	-8846
▁garbage	-8847
▁welcoming	-8848
hot	-8849
▁tane	-8850
▁brisk	-8851
▁indif	-8852
▁searing	-8853
▁rejection	-8854
▁exasperated	-8855
▁coy	-8856
▁flav	-8857
▁scot	-8858
▁penis	-8859
▁unmist	-8860
▁awkwardly	-8861
▁competition	-8862
▁awak	-8863
▁deme	-8864
▁zeke	-8865
▁bucket	-8866
▁shaken	-8867
▁couples	-8868
▁stubble	-8869
▁notebook	-8870
▁services	-8871
▁shirleen	-8872
▁tenderly	-8873
omy	-8874
▁fred	-8875
▁thud	-8876
▁combined	-8877
▁muttering	-8878
▁experiment	-8879
▁bewild	-8880
▁thresh	-8881
something	-8882
▁pose	-8883
▁soup	-8884
istent	-8885
▁disgu	-8886
▁minim	-8887
▁prayer	-8888
▁serving	-8889
▁pavement	-8890
▁sanctuary	-8891
▁lia	-8892
▁decades	-8893
▁jericho	-8894
▁threshold	-8895
nie	-8896
▁flet	-8897
▁comprom	-8898
▁challenged	-8899
▁appreciation	-8900
bor	-8901
inte	-8902
▁cyn	-8903
▁guts	-8904
▁lair	-8905
▁papa	-8906
▁peer	-8907
raging	-8908
▁poker	-8909
▁texas	-8910
▁popping	-8911
▁scanning	-8912
▁housekeeper	-8913
▁tz	-8914
door	-8915
▁wire	-8916
▁ambul	-8917
▁massage	-8918
▁specifically	-8919
▁phr	-8920
iselle	-8921
▁august	-8922
▁depend	-8923
▁claudia	-8924
▁roommate	-8925
antha	-8926
▁toby	-8927
▁overd	-8928
▁score	-8929
▁banged	-8930
▁daimon	-8931
▁denial	-8932
▁dollar	-8933
▁lanthe	-8934
▁straps	-8935
▁pinning	-8936
▁destruction	-8937
▁interrupting	-8938
▁knots	-8939
▁desires	-8940
▁limited	-8941
▁tongues	-8942
don	-8943
uced	-8944
unks	-8945
seven	-8946
▁pang	-8947
▁holes	-8948
▁repeatedly	-8949
car	-8950
▁spy	-8951
▁clam	-8952
▁hilt	-8953
rences	-8954
▁kayla	-8955
▁column	-8956
▁conrad	-8957
▁rydstrom	-8958
▁butterfly	-8959
mind	-8960
▁agon	-8961
▁scan	-8962
▁panted	-8963
▁reenie	-8964
▁traitor	-8965
▁demonstr	-8966
▁warehouse	-8967
onos	-8968
▁plot	-8969
alyna	-8970
▁kalyna	-8971
▁unpleas	-8972
▁examined	-8973
▁particip	-8974
chief	-8975
▁rises	-8976
▁harlow	-8977
▁confessed	-8978
▁cheekbones	-8979
▁bou	-8980
▁yuri	-8981
udging	-8982
▁vivid	-8983
▁behave	-8984
▁cookie	-8985
▁knives	-8986
▁coughed	-8987
▁wardrobe	-8988
▁vig	-8989
eting	-8990
inton	-8991
▁fighter	-8992
▁threats	-8993
▁winding	-8994
▁concentration	-8995
bag	-8996
hem	-8997
▁gus	-8998
arming	-8999
▁vicki	-9000
▁flashes	-9001
▁rumbled	-9002
▁alongside	-9003
▁patiently	-9004
▁ada	-9005
▁jeep	-9006
▁mode	-9007
▁gained	-9008
▁growls	-9009
▁century	-9010
▁hunched	-9011
colo	-9012
ppers	-9013
▁condo	-9014
▁mckell	-9015
▁swelled	-9016
ode	-9017
asms	-9018
rene	-9019
▁gla	-9020
▁ture	-9021
▁priest	-9022
▁raises	-9023
▁pandora	-9024
▁species	-9025
▁apologet	-9026
▁scowling	-9027
face	-9028
▁debt	-9029
▁rhea	-9030
▁jokes	-9031
▁biceps	-9032
▁farrell	-9033
▁reun	-9034
▁tzader	-9035
icop	-9036
▁alt	-9037
▁ugh	-9038
▁frenzy	-9039
▁plants	-9040
▁neutral	-9041
▁niccolo	-9042
▁skimmed	-9043
▁ponder	-9044
▁cure	-9045
▁swam	-9046
▁solve	-9047
▁pistol	-9048
▁sobbed	-9049
▁bullets	-9050
▁cheated	-9051
▁dimples	-9052
▁bitterly	-9053
kk	-9054
▁tire	-9055
▁hummed	-9056
▁shivers	-9057
▁nut	-9058
▁rim	-9059
acity	-9060
piece	-9061
▁roam	-9062
▁recip	-9063
▁corpor	-9064
▁levels	-9065
▁strain	-9066
▁earnest	-9067
▁fiancee	-9068
▁delivery	-9069
▁tripped	-9070
▁glen	-9071
▁nash	-9072
▁bloss	-9073
▁drain	-9074
▁dont	-9075
▁horrif	-9076
▁obsessed	-9077
▁slapping	-9078
nis	-9079
name	-9080
▁indiv	-9081
control	-9082
▁stroll	-9083
▁helicop	-9084
▁cautious	-9085
▁bodyguard	-9086
▁construction	-9087
enced	-9088
▁overl	-9089
▁thump	-9090
▁plucked	-9091
▁treasure	-9092
▁oven	-9093
▁rows	-9094
▁armed	-9095
▁asher	-9096
▁spear	-9097
▁freely	-9098
▁strides	-9099
▁tilting	-9100
▁calliope	-9101
▁snort	-9102
▁agency	-9103
▁casting	-9104
▁drunken	-9105
▁reassure	-9106
▁retreated	-9107
oub	-9108
▁chef	-9109
liness	-9110
▁francisco	-9111
▁deni	-9112
▁piled	-9113
▁sauce	-9114
▁sherry	-9115
▁receive	-9116
▁thronos	-9117
▁shimmering	-9118
rend	-9119
▁tile	-9120
ughters	-9121
▁regarding	-9122
▁au	-9123
▁fare	-9124
▁vowed	-9125
▁legend	-9126
▁portra	-9127
▁puzzle	-9128
▁throws	-9129
▁contest	-9130
▁lurched	-9131
▁fills	-9132
▁adults	-9133
▁greedy	-9134
▁powder	-9135
▁concerns	-9136
▁throbbed	-9137
▁trousers	-9138
▁chal	-9139
▁repr	-9140
▁kitty	-9141
▁rifle	-9142
▁traum	-9143
▁parano	-9144
▁speaks	-9145
aneously	-9146
▁heaving	-9147
▁crumpled	-9148
▁grasping	-9149
▁samantha	-9150
▁vengeance	-9151
rolled	-9152
▁metis	-9153
▁fiance	-9154
▁director	-9155
▁fascinating	-9156
ummy	-9157
anked	-9158
▁dwell	-9159
▁borrow	-9160
▁wasting	-9161
▁stalking	-9162
▁plastered	-9163
when	-9164
▁cory	-9165
▁vest	-9166
▁skept	-9167
standing	-9168
▁banging	-9169
▁stifled	-9170
▁structure	-9171
had	-9172
gery	-9173
▁proven	-9174
▁anguish	-9175
▁antonia	-9176
▁smoking	-9177
▁blinding	-9178
rus	-9179
ivity	-9180
white	-9181
▁songs	-9182
▁meantime	-9183
▁moisture	-9184
▁valerius	-9185
mend	-9186
▁arik	-9187
▁labor	-9188
▁absurd	-9189
▁upside	-9190
▁ras	-9191
▁syd	-9192
▁levi	-9193
anky	-9194
fold	-9195
▁glued	-9196
▁yards	-9197
▁bumped	-9198
▁burying	-9199
▁requested	-9200
gate	-9201
▁alic	-9202
▁tests	-9203
▁amulet	-9204
▁useful	-9205
▁predict	-9206
▁reports	-9207
▁louis	-9208
▁denver	-9209
▁resour	-9210
▁illusion	-9211
▁wrenched	-9212
▁activities	-9213
rod	-9214
ros	-9215
cast	-9216
▁depos	-9217
▁shack	-9218
▁volume	-9219
▁depends	-9220
▁expressions	-9221
▁areas	-9222
▁nipped	-9223
▁rights	-9224
▁accommod	-9225
▁fingertip	-9226
▁overnight	-9227
▁assignment	-9228
▁unit	-9229
▁lemon	-9230
▁salon	-9231
▁confess	-9232
▁diamonds	-9233
aved	-9234
▁snaps	-9235
▁usher	-9236
▁truman	-9237
▁manners	-9238
▁generally	-9239
▁transform	-9240
erk	-9241
▁tires	-9242
▁wrigg	-9243
▁frowns	-9244
▁dripped	-9245
▁mallory	-9246
▁squirmed	-9247
▁ambulance	-9248
▁arrangements	-9249
▁atmos	-9250
▁bathing	-9251
▁parting	-9252
▁admiring	-9253
▁flicking	-9254
▁university	-9255
urt	-9256
▁harry	-9257
▁verge	-9258
▁weary	-9259
▁picnic	-9260
▁fishing	-9261
▁insurance	-9262
▁bri	-9263
nesday	-9264
shaped	-9265
▁rumble	-9266
▁skirts	-9267
▁include	-9268
▁theater	-9269
▁fascination	-9270
essa	-9271
hell	-9272
▁orn	-9273
▁blat	-9274
▁foster	-9275
▁grimly	-9276
▁growling	-9277
▁homework	-9278
▁reed	-9279
▁perse	-9280
▁razor	-9281
▁scand	-9282
▁chuckles	-9283
▁forearms	-9284
▁correctly	-9285
roph	-9286
acher	-9287
▁loft	-9288
acious	-9289
▁minor	-9290
▁cancer	-9291
▁tended	-9292
▁darting	-9293
▁reserved	-9294
▁adventure	-9295
▁foul	-9296
ieving	-9297
▁bolted	-9298
▁casino	-9299
▁returns	-9300
▁stephan	-9301
▁platform	-9302
▁werewolf	-9303
xes	-9304
▁dizz	-9305
▁seal	-9306
▁soda	-9307
▁sunk	-9308
ithing	-9309
▁obeyed	-9310
▁solemn	-9311
▁institute	-9312
▁wednesday	-9313
▁uncomfortably	-9314
▁tin	-9315
▁pron	-9316
▁distr	-9317
▁outer	-9318
▁buckle	-9319
▁chatting	-9320
▁sweatshirt	-9321
▁cit	-9322
▁lyn	-9323
▁brood	-9324
▁jolted	-9325
▁kinich	-9326
▁multiple	-9327
▁survival	-9328
▁resistance	-9329
▁responding	-9330
▁revol	-9331
▁passes	-9332
▁brunette	-9333
▁preoccup	-9334
▁nov	-9335
▁pam	-9336
▁pend	-9337
approp	-9338
▁decade	-9339
▁openly	-9340
▁smashed	-9341
▁butterflies	-9342
cha	-9343
ups	-9344
gage	-9345
rated	-9346
▁taxi	-9347
herent	-9348
▁escal	-9349
▁fifth	-9350
▁heartbre	-9351
▁strapped	-9352
▁treating	-9353
▁altogether	-9354
▁colog	-9355
▁stain	-9356
▁liquor	-9357
▁sunset	-9358
▁misunder	-9359
wind	-9360
▁nich	-9361
▁shah	-9362
▁urging	-9363
▁cologne	-9364
▁hesitant	-9365
▁writhing	-9366
▁unpleasant	-9367
▁encouraging	-9368
▁spa	-9369
point	-9370
▁keen	-9371
▁kink	-9372
▁convul	-9373
▁spider	-9374
▁shorter	-9375
▁shuffled	-9376
▁sweating	-9377
▁promising	-9378
▁encountered	-9379
bi	-9380
aying	-9381
▁rape	-9382
▁genius	-9383
▁theirs	-9384
▁lecture	-9385
▁spoiled	-9386
▁respected	-9387
beth	-9388
uffed	-9389
▁junior	-9390
▁linked	-9391
▁custody	-9392
▁strangled	-9393
apor	-9394
oman	-9395
▁yog	-9396
▁jett	-9397
▁scrap	-9398
▁beings	-9399
▁sagged	-9400
▁insec	-9401
▁tissue	-9402
▁cheerful	-9403
▁bitterness	-9404
▁description	-9405
▁ramp	-9406
▁soaking	-9407
▁applied	-9408
▁facility	-9409
▁goddamned	-9410
gic	-9411
▁heap	-9412
▁campa	-9413
▁offices	-9414
▁compound	-9415
▁collarbone	-9416
▁addison	-9417
▁absorbed	-9418
▁appealing	-9419
▁daughters	-9420
▁atmosphere	-9421
▁destination	-9422
▁mused	-9423
▁ropes	-9424
▁inched	-9425
▁pencil	-9426
▁brushes	-9427
▁twitching	-9428
▁butch	-9429
▁etched	-9430
▁nicely	-9431
▁approve	-9432
▁average	-9433
▁steadily	-9434
▁troubled	-9435
▁forbidden	-9436
▁thanksgiving	-9437
▁panel	-9438
▁tricks	-9439
rin	-9440
▁maia	-9441
▁talks	-9442
▁softer	-9443
▁portion	-9444
▁smoothing	-9445
▁impatience	-9446
tti	-9447
some	-9448
▁pesh	-9449
▁initi	-9450
▁pardon	-9451
▁caution	-9452
apse	-9453
▁motiv	-9454
▁device	-9455
▁retrieve	-9456
kers	-9457
▁nestled	-9458
▁spirits	-9459
▁medicine	-9460
▁hollywood	-9461
▁speechless	-9462
▁sout	-9463
ustomed	-9464
▁cavern	-9465
▁pulsed	-9466
▁attempts	-9467
▁defeated	-9468
▁identical	-9469
▁hugs	-9470
▁tune	-9471
▁ts	-9472
anity	-9473
▁dive	-9474
▁glee	-9475
▁shine	-9476
▁tracy	-9477
▁destro	-9478
▁limits	-9479
▁prompt	-9480
▁disconn	-9481
▁quivering	-9482
▁complaining	-9483
▁controlling	-9484
▁bren	-9485
▁ralph	-9486
▁logical	-9487
▁uttered	-9488
▁admission	-9489
▁landscape	-9490
pse	-9491
▁pi	-9492
reet	-9493
▁beds	-9494
▁smother	-9495
▁sophist	-9496
uster	-9497
▁canv	-9498
▁semi	-9499
▁heath	-9500
▁jumps	-9501
▁wives	-9502
▁proudly	-9503
▁graceful	-9504
▁az	-9505
▁sack	-9506
▁flatt	-9507
▁mandi	-9508
▁border	-9509
▁drawers	-9510
▁gleamed	-9511
▁gliding	-9512
▁patrick	-9513
▁threaten	-9514
▁overheard	-9515
mered	-9516
▁tale	-9517
▁isabel	-9518
▁whipping	-9519
▁valentina	-9520
▁fights	-9521
▁uncertainty	-9522
your	-9523
▁upd	-9524
angle	-9525
ifted	-9526
▁byron	-9527
▁index	-9528
▁padded	-9529
▁tickled	-9530
why	-9531
load	-9532
rees	-9533
▁surveyed	-9534
icit	-9535
▁gay	-9536
▁fluid	-9537
▁tipto	-9538
▁towels	-9539
▁countless	-9540
▁plea	-9541
▁uncon	-9542
▁redhead	-9543
▁sparkle	-9544
▁weighed	-9545
▁figuring	-9546
▁resigned	-9547
▁tracking	-9548
▁dana	-9549
▁junk	-9550
▁pete	-9551
▁busted	-9552
▁individual	-9553
▁mol	-9554
▁obst	-9555
▁wool	-9556
ications	-9557
▁frankly	-9558
▁scrubbed	-9559
▁unmistakable	-9560
tw	-9561
vity	-9562
▁pir	-9563
idded	-9564
▁squad	-9565
▁chandler	-9566
▁indicating	-9567
▁subs	-9568
▁owners	-9569
▁stevie	-9570
▁unison	-9571
tal	-9572
asions	-9573
▁punct	-9574
▁recom	-9575
▁blasted	-9576
▁blessed	-9577
▁admitting	-9578
▁whoo	-9579
▁jaxxon	-9580
▁snatch	-9581
▁swords	-9582
▁russian	-9583
▁chuckling	-9584
▁announcement	-9585
▁suspiciously	-9586
eds	-9587
▁macie	-9588
▁announ	-9589
▁jagged	-9590
▁practical	-9591
▁breathtaking	-9592
▁stays	-9593
▁easing	-9594
▁phones	-9595
▁attorney	-9596
▁sympathetic	-9597
▁becky	-9598
▁pluck	-9599
▁eyelashes	-9600
▁beautifully	-9601
▁teddy	-9602
pad	-9603
▁sham	-9604
▁tink	-9605
▁recon	-9606
▁inapprop	-9607
▁screwing	-9608
▁bark	-9609
▁meals	-9610
▁swanny	-9611
▁failing	-9612
▁faintly	-9613
▁scenario	-9614
▁exploring	-9615
za	-9616
▁lords	-9617
▁supply	-9618
▁certainty	-9619
bie	-9620
▁gag	-9621
▁celine	-9622
▁shahara	-9623
▁apprehen	-9624
▁loki	-9625
renched	-9626
▁soothed	-9627
▁amazement	-9628
▁galen	-9629
▁glint	-9630
▁steak	-9631
▁sparked	-9632
▁colorful	-9633
▁demeanor	-9634
▁hesitantly	-9635
▁dangerously	-9636
front	-9637
▁olive	-9638
▁rusty	-9639
▁unease	-9640
▁damaged	-9641
▁scarred	-9642
▁escaping	-9643
▁erik	-9644
▁smold	-9645
▁cooked	-9646
▁fumbled	-9647
▁campaign	-9648
▁vibrating	-9649
▁uncontroll	-9650
▁forgiveness	-9651
▁sarcastically	-9652
▁aust	-9653
▁distracting	-9654
▁rubs	-9655
soever	-9656
▁babys	-9657
▁cheat	-9658
▁feast	-9659
▁museum	-9660
▁bubbles	-9661
▁calming	-9662
▁reckless	-9663
▁challenging	-9664
▁ll	-9665
▁om	-9666
▁brant	-9667
▁mound	-9668
▁prime	-9669
▁adored	-9670
▁ashlyn	-9671
▁sexually	-9672
▁flickering	-9673
zer	-9674
▁omin	-9675
▁puck	-9676
▁hairs	-9677
▁suicide	-9678
▁conj	-9679
▁horn	-9680
▁murde	-9681
▁dawned	-9682
▁imprison	-9683
▁occasional	-9684
upt	-9685
▁fet	-9686
▁roc	-9687
▁tas	-9688
▁wist	-9689
▁pilot	-9690
▁steep	-9691
fashion	-9692
▁filthy	-9693
▁mutual	-9694
▁effects	-9695
▁secured	-9696
▁backside	-9697
▁mcc	-9698
▁thorn	-9699
▁pickup	-9700
▁disease	-9701
▁mutters	-9702
▁elsewhere	-9703
▁helicopter	-9704
▁whatsoever	-9705
▁anticipated	-9706
cons	-9707
green	-9708
▁drives	-9709
▁folder	-9710
▁gabrie	-9711
▁fest	-9712
▁abuse	-9713
▁duties	-9714
▁glided	-9715
▁channel	-9716
▁visibly	-9717
▁thoughtfully	-9718
born	-9719
▁ade	-9720
uated	-9721
▁nike	-9722
▁rogan	-9723
▁luther	-9724
▁exercise	-9725
▁intelligence	-9726
alb	-9727
▁evang	-9728
▁comprehe	-9729
▁gyps	-9730
▁sult	-9731
▁glide	-9732
▁becomes	-9733
▁cul	-9734
▁dur	-9735
▁barre	-9736
▁exotic	-9737
▁bedrooms	-9738
▁clarissa	-9739
▁vibrated	-9740
run	-9741
nine	-9742
▁jonah	-9743
▁kylie	-9744
▁luxur	-9745
▁blessing	-9746
▁goodnight	-9747
▁lilith	-9748
▁proving	-9749
▁quinton	-9750
▁swaying	-9751
ota	-9752
gown	-9753
ulty	-9754
▁dot	-9755
▁irene	-9756
▁amelie	-9757
▁crotch	-9758
▁rielle	-9759
▁bracing	-9760
▁harshly	-9761
▁fountain	-9762
zo	-9763
▁kor	-9764
▁eerie	-9765
▁gaius	-9766
▁manic	-9767
▁gesturing	-9768
▁seduction	-9769
ential	-9770
▁compar	-9771
▁murderer	-9772
▁handy	-9773
▁yawned	-9774
▁negative	-9775
▁reporter	-9776
▁youngest	-9777
▁accomplish	-9778
▁lovemaking	-9779
▁permanently	-9780
lim	-9781
doll	-9782
udged	-9783
▁maax	-9784
▁bruise	-9785
▁concert	-9786
▁yup	-9787
▁disd	-9788
▁beats	-9789
▁bells	-9790
▁launch	-9791
▁mexico	-9792
▁wesley	-9793
▁coincidence	-9794
▁tentatively	-9795
aves	-9796
▁peak	-9797
▁unpr	-9798
▁micro	-9799
▁thong	-9800
▁tommy	-9801
▁scient	-9802
▁waters	-9803
▁sipping	-9804
▁scheduled	-9805
▁rex	-9806
▁deaf	-9807
▁loop	-9808
▁sends	-9809
▁curran	-9810
▁flatly	-9811
▁ladder	-9812
▁slaves	-9813
▁weakly	-9814
▁impulse	-9815
▁punching	-9816
▁aggressive	-9817
nin	-9818
kins	-9819
wife	-9820
▁nova	-9821
▁addie	-9822
▁roxie	-9823
▁granite	-9824
▁handling	-9825
▁rejected	-9826
▁casc	-9827
▁golf	-9828
albret	-9829
ouched	-9830
▁earlo	-9831
▁fuzzy	-9832
▁purred	-9833
▁nonsense	-9834
▁summoned	-9835
▁unspoken	-9836
▁president	-9837
▁surprises	-9838
▁shh	-9839
▁muted	-9840
▁confron	-9841
het	-9842
▁py	-9843
hard	-9844
▁clasp	-9845
quarters	-9846
▁accustomed	-9847
▁satisfying	-9848
▁dh	-9849
mark	-9850
opard	-9851
▁owns	-9852
▁laney	-9853
▁hadley	-9854
▁storage	-9855
▁education	-9856
▁eh	-9857
▁cant	-9858
▁kier	-9859
▁obed	-9860
▁swat	-9861
boards	-9862
▁parad	-9863
▁blurred	-9864
▁dipping	-9865
▁surgery	-9866
▁developed	-9867
▁acceptance	-9868
▁gin	-9869
▁disagree	-9870
▁splashed	-9871
▁appearing	-9872
▁accusation	-9873
▁proc	-9874
▁rehe	-9875
▁stan	-9876
▁cling	-9877
▁texts	-9878
▁atlant	-9879
▁badass	-9880
▁ghosts	-9881
▁ironic	-9882
▁shoots	-9883
▁satisfy	-9884
▁tingled	-9885
▁discreet	-9886
▁observed	-9887
▁sarcastic	-9888
amedes	-9889
▁barrel	-9890
▁essence	-9891
▁bachelor	-9892
▁savoring	-9893
▁disturbed	-9894
▁presented	-9895
agan	-9896
▁fires	-9897
▁plump	-9898
▁venom	-9899
▁poking	-9900
▁saddle	-9901
▁appetite	-9902
▁sauntered	-9903
▁nickamedes	-9904
▁gap	-9905
fight	-9906
▁handc	-9907
▁scarce	-9908
▁hitched	-9909
▁remorse	-9910
fashioned	-9911
▁standard	-9912
▁accomplished	-9913
▁experiencing	-9914
going	-9915
▁jung	-9916
▁mant	-9917
▁wince	-9918
▁cheerle	-9919
▁chewing	-9920
▁magazines	-9921
mond	-9922
▁scur	-9923
▁angie	-9924
▁notion	-9925
▁superior	-9926
▁composure	-9927
▁ana	-9928
▁jal	-9929
▁appla	-9930
▁nixon	-9931
ambling	-9932
▁battered	-9933
▁rag	-9934
cloth	-9935
nders	-9936
▁reid	-9937
▁layers	-9938
▁talkin	-9939
▁warming	-9940
▁escorted	-9941
▁annabelle	-9942
▁oxy	-9943
black	-9944
zrina	-9945
▁gord	-9946
▁bleak	-9947
▁follows	-9948
▁creative	-9949
alf	-9950
win	-9951
ianna	-9952
▁bout	-9953
▁glove	-9954
▁linger	-9955
▁records	-9956
▁monsters	-9957
▁strategy	-9958
bits	-9959
oebe	-9960
▁briefs	-9961
▁selena	-9962
▁shaped	-9963
▁flopped	-9964
▁helpful	-9965
▁stumble	-9966
▁newt	-9967
▁casper	-9968
▁narrowing	-9969
▁boom	-9970
▁cozy	-9971
▁elin	-9972
▁disdain	-9973
▁whistled	-9974
▁commented	-9975
▁flattened	-9976
zily	-9977
▁baff	-9978
▁fans	-9979
▁benji	-9980
▁phoebe	-9981
▁buckled	-9982
▁anderson	-9983
▁iz	-9984
▁les	-9985
urned	-9986
▁comf	-9987
shield	-9988
▁britt	-9989
▁undone	-9990
▁immense	-9991
▁souther	-9992
▁collapse	-9993
▁nightgown	-9994
▁occasions	-9995
▁necessarily	-9996
cat	-9997
gom	-9998
▁shawn	-9999
▁kessen	-10000
▁operation	-10001
▁encouraged	-10002
may	-10003
▁brist	-10004
pective	-10005
▁primal	-10006
▁suited	-10007
▁speaker	-10008
▁paradise	-10009
▁acid	-10010
▁aven	-10011
▁wulf	-10012
▁plays	-10013
▁brains	-10014
▁coated	-10015
▁creeping	-10016
▁withdraw	-10017
▁straightening	-10018
crow	-10019
▁lave	-10020
▁displ	-10021
▁glossy	-10022
▁mainly	-10023
▁tastes	-10024
▁plopped	-10025
▁slowing	-10026
▁succeeded	-10027
ocr	-10028
mber	-10029
▁cats	-10030
▁joey	-10031
▁legit	-10032
▁ezrina	-10033
▁sketch	-10034
▁costume	-10035
▁extraord	-10036
athing	-10037
▁navig	-10038
▁players	-10039
▁practiced	-10040
▁exasperation	-10041
▁tag	-10042
athom	-10043
▁scrut	-10044
▁paraly	-10045
▁explains	-10046
▁confusing	-10047
god	-10048
▁apo	-10049
▁bye	-10050
▁dab	-10051
▁slur	-10052
earing	-10053
▁jimmy	-10054
▁oppon	-10055
ounting	-10056
▁addict	-10057
▁aspect	-10058
▁jewels	-10059
▁rubber	-10060
▁sparkled	-10061
▁concentrating	-10062
▁vulnerability	-10063
life	-10064
style	-10065
▁blaze	-10066
▁tools	-10067
▁concept	-10068
▁acquaint	-10069
▁suggesting	-10070
ruct	-10071
▁ker	-10072
▁nefri	-10073
▁outst	-10074
▁sandy	-10075
▁partly	-10076
▁accusing	-10077
▁headlights	-10078
rings	-10079
tedly	-10080
▁shal	-10081
▁unin	-10082
▁acute	-10083
▁elissa	-10084
▁soften	-10085
▁examine	-10086
▁quirked	-10087
▁brighter	-10088
ddy	-10089
huh	-10090
▁sue	-10091
orous	-10092
uable	-10093
▁flag	-10094
▁leaf	-10095
▁skit	-10096
▁instr	-10097
▁joint	-10098
▁rosal	-10099
▁compare	-10100
▁margaret	-10101
gs	-10102
uted	-10103
▁cind	-10104
▁vote	-10105
ounding	-10106
▁hardest	-10107
▁managing	-10108
▁significant	-10109
▁ath	-10110
idents	-10111
▁kaspar	-10112
▁disturb	-10113
▁believes	-10114
▁beef	-10115
▁tunn	-10116
▁liber	-10117
▁lining	-10118
▁pupils	-10119
▁insanity	-10120
▁hack	-10121
▁knob	-10122
▁rumor	-10123
▁alarmed	-10124
▁walt	-10125
ission	-10126
▁angelo	-10127
▁stores	-10128
▁endured	-10129
good	-10130
▁bait	-10131
▁krit	-10132
▁reapp	-10133
▁pendant	-10134
▁stinging	-10135
▁pointedly	-10136
▁fluttering	-10137
▁relatively	-10138
▁voc	-10139
▁fidd	-10140
▁hades	-10141
▁absent	-10142
▁coldly	-10143
▁mighty	-10144
▁tangle	-10145
▁undoub	-10146
▁wheels	-10147
▁gardens	-10148
▁destroying	-10149
▁foundation	-10150
istr	-10151
works	-10152
▁eman	-10153
▁vine	-10154
▁alike	-10155
▁detect	-10156
▁somber	-10157
▁clement	-10158
▁curving	-10159
▁deserted	-10160
ika	-10161
word	-10162
▁bid	-10163
ishes	-10164
▁sequ	-10165
arents	-10166
▁freshly	-10167
▁courtesy	-10168
▁hormones	-10169
▁menacing	-10170
▁admiration	-10171
▁unbuttoned	-10172
▁unbelievable	-10173
fir	-10174
hole	-10175
rive	-10176
necess	-10177
▁cushions	-10178
▁windshield	-10179
▁bum	-10180
▁confl	-10181
▁felix	-10182
▁raina	-10183
▁maysie	-10184
▁rippled	-10185
▁bastards	-10186
▁cocktail	-10187
▁internal	-10188
▁taunting	-10189
▁widening	-10190
hire	-10191
brush	-10192
▁uses	-10193
▁courty	-10194
▁sergei	-10195
▁reeling	-10196
▁sandals	-10197
▁strongly	-10198
▁stripping	-10199
▁glistening	-10200
oph	-10201
odka	-10202
pecting	-10203
▁noting	-10204
▁lingerie	-10205
▁talented	-10206
▁intensified	-10207
▁recognition	-10208
▁cody	-10209
▁dharr	-10210
▁kader	-10211
▁france	-10212
▁regain	-10213
▁humanity	-10214
▁stepfather	-10215
▁photographs	-10216
▁preoccupied	-10217
ancroft	-10218
▁blaine	-10219
▁judson	-10220
▁inspect	-10221
▁involve	-10222
▁payment	-10223
▁inwardly	-10224
▁southern	-10225
▁intensely	-10226
wr	-10227
▁og	-10228
▁aub	-10229
brook	-10230
▁cuffs	-10231
▁heady	-10232
▁paled	-10233
▁whistle	-10234
▁worship	-10235
▁agitated	-10236
▁arriving	-10237
▁bancroft	-10238
▁champion	-10239
▁entertainment	-10240
▁alb	-10241
lished	-10242
▁splin	-10243
▁agenda	-10244
▁outline	-10245
▁irresist	-10246
▁radiated	-10247
▁positions	-10248
iac	-10249
▁incap	-10250
▁unfair	-10251
▁sneered	-10252
▁messenger	-10253
lance	-10254
▁wield	-10255
▁giggles	-10256
▁montgom	-10257
▁represent	-10258
▁situations	-10259
gor	-10260
wayne	-10261
▁needy	-10262
▁vodka	-10263
▁review	-10264
▁guiding	-10265
▁posture	-10266
▁purchased	-10267
▁sum	-10268
▁baya	-10269
▁chir	-10270
▁neil	-10271
▁rabid	-10272
▁baxter	-10273
▁neared	-10274
▁kaderin	-10275
▁friction	-10276
▁inappropriate	-10277
ampoo	-10278
innie	-10279
▁gulp	-10280
▁lacy	-10281
▁midst	-10282
▁fixing	-10283
▁jogged	-10284
▁limous	-10285
▁privile	-10286
▁pancakes	-10287
▁stumbling	-10288
▁outstretched	-10289
▁belad	-10290
ciating	-10291
▁immune	-10292
▁unread	-10293
force	-10294
▁cunt	-10295
▁adopt	-10296
▁bluff	-10297
▁ignor	-10298
▁bathed	-10299
▁shampoo	-10300
▁frig	-10301
▁hott	-10302
minded	-10303
▁crook	-10304
▁fling	-10305
▁johnny	-10306
▁spells	-10307
▁earlobe	-10308
▁unnecess	-10309
▁screeched	-10310
▁apologized	-10311
▁undoubtedly	-10312
ds	-10313
igan	-10314
▁zip	-10315
▁behalf	-10316
▁blazed	-10317
▁cooler	-10318
▁grazed	-10319
▁mouthed	-10320
▁striding	-10321
▁snarl	-10322
▁ribbon	-10323
▁streak	-10324
▁quivered	-10325
▁obsession	-10326
▁devastating	-10327
▁gid	-10328
▁ixt	-10329
dened	-10330
▁epis	-10331
length	-10332
▁grows	-10333
unching	-10334
▁forces	-10335
▁lucian	-10336
▁paragon	-10337
▁courtyard	-10338
▁repeating	-10339
▁someplace	-10340
▁straddling	-10341
▁blan	-10342
▁cove	-10343
astyan	-10344
▁ixtab	-10345
▁savor	-10346
▁bounce	-10347
▁jungle	-10348
▁auction	-10349
▁stables	-10350
▁stressed	-10351
▁jut	-10352
▁didn	-10353
▁prem	-10354
▁catal	-10355
▁horny	-10356
▁devlin	-10357
▁snagged	-10358
▁laurelyn	-10359
▁nicholas	-10360
▁receiver	-10361
▁stocking	-10362
▁threaded	-10363
▁towering	-10364
▁envy	-10365
▁backup	-10366
▁clutch	-10367
▁oxygen	-10368
▁condoms	-10369
▁hostess	-10370
▁faltered	-10371
▁sevastyan	-10372
▁expectations	-10373
anse	-10374
cake	-10375
ieve	-10376
▁ariz	-10377
▁pinch	-10378
▁roads	-10379
▁scoot	-10380
▁chimed	-10381
▁dignity	-10382
▁complaint	-10383
hor	-10384
rim	-10385
onic	-10386
▁knead	-10387
▁nausea	-10388
▁stiffly	-10389
bar	-10390
ours	-10391
sett	-10392
▁gust	-10393
▁isol	-10394
▁tool	-10395
▁plush	-10396
▁ravyn	-10397
▁viktis	-10398
▁peeking	-10399
▁squared	-10400
▁evangeline	-10401
▁accompanied	-10402
▁perspective	-10403
ati	-10404
only	-10405
▁nanny	-10406
▁clawed	-10407
▁infect	-10408
▁squirm	-10409
▁receptionist	-10410
enc	-10411
ooks	-10412
▁fra	-10413
▁vows	-10414
▁creep	-10415
▁giddy	-10416
▁hammer	-10417
▁repair	-10418
▁lifesty	-10419
acting	-10420
▁manor	-10421
▁debbie	-10422
▁stench	-10423
▁vibrant	-10424
▁lavender	-10425
▁discarded	-10426
▁intending	-10427
▁breathlessly	-10428
kind	-10429
▁horns	-10430
▁bushes	-10431
▁gordon	-10432
▁environ	-10433
thirty	-10434
▁glimps	-10435
▁sticks	-10436
▁allison	-10437
▁ruining	-10438
▁science	-10439
▁scraping	-10440
▁tumbling	-10441
▁completed	-10442
▁print	-10443
▁swive	-10444
▁simult	-10445
▁summon	-10446
▁classic	-10447
▁smelling	-10448
▁graduated	-10449
▁faz	-10450
▁lav	-10451
▁tut	-10452
erity	-10453
oster	-10454
▁coke	-10455
▁rans	-10456
▁eliza	-10457
▁mildly	-10458
▁sydney	-10459
▁purchase	-10460
▁weekends	-10461
▁household	-10462
▁interests	-10463
▁celebration	-10464
usal	-10465
very	-10466
▁brim	-10467
ercial	-10468
▁schol	-10469
▁fitted	-10470
▁shayne	-10471
▁binding	-10472
▁fraction	-10473
▁amid	-10474
▁dimit	-10475
▁hilar	-10476
▁pearl	-10477
▁retire	-10478
▁chilled	-10479
▁longest	-10480
zzi	-10481
▁vau	-10482
iches	-10483
▁spart	-10484
▁fazire	-10485
▁evident	-10486
▁doorstep	-10487
icity	-10488
▁chemist	-10489
▁attended	-10490
▁fleeting	-10491
▁relentless	-10492
tale	-10493
▁impr	-10494
▁freck	-10495
▁loosen	-10496
▁expanse	-10497
▁roaring	-10498
▁splayed	-10499
▁intimidating	-10500
llie	-10501
▁duff	-10502
▁apply	-10503
▁intric	-10504
▁poised	-10505
▁chained	-10506
▁rosalind	-10507
▁leis	-10508
▁prow	-10509
▁trib	-10510
▁void	-10511
▁novak	-10512
▁ceased	-10513
▁legion	-10514
▁sawyer	-10515
▁suffoc	-10516
▁worlds	-10517
▁convent	-10518
▁stacked	-10519
▁assigned	-10520
▁cradling	-10521
▁swelling	-10522
▁receiving	-10523
▁convenient	-10524
iar	-10525
▁zo	-10526
▁fee	-10527
aston	-10528
▁ashli	-10529
▁attic	-10530
▁denim	-10531
▁hayes	-10532
▁prost	-10533
▁contempt	-10534
▁marabeth	-10535
lers	-10536
oused	-10537
▁danny	-10538
▁erase	-10539
▁roots	-10540
▁whirl	-10541
▁arizona	-10542
▁irritating	-10543
oid	-10544
▁rut	-10545
erving	-10546
▁barry	-10547
▁conso	-10548
▁pepper	-10549
▁drowned	-10550
▁limousine	-10551
onym	-10552
▁ski	-10553
▁sect	-10554
▁nickname	-10555
▁shadowed	-10556
▁sophisticated	-10557
▁corr	-10558
▁sully	-10559
▁scenes	-10560
▁visual	-10561
▁springs	-10562
▁fortress	-10563
▁unlikely	-10564
ewed	-10565
▁ful	-10566
every	-10567
▁andy	-10568
▁italy	-10569
▁lever	-10570
▁linen	-10571
▁mates	-10572
▁tested	-10573
▁heating	-10574
▁national	-10575
▁rearview	-10576
▁reported	-10577
▁dunge	-10578
▁assess	-10579
▁grocer	-10580
▁conspir	-10581
▁latched	-10582
▁comparison	-10583
▁grandparents	-10584
umm	-10585
rant	-10586
▁cad	-10587
maker	-10588
▁dict	-10589
▁loan	-10590
▁erica	-10591
▁termin	-10592
▁rehears	-10593
▁bursting	-10594
▁commission	-10595
▁manh	-10596
▁brina	-10597
▁weres	-10598
▁shaved	-10599
▁quickened	-10600
▁unbearable	-10601
▁headquarters	-10602
first	-10603
press	-10604
▁prett	-10605
▁rodeo	-10606
▁actress	-10607
▁huddled	-10608
▁slither	-10609
▁predator	-10610
▁arrogance	-10611
▁hammering	-10612
▁originally	-10613
▁straighten	-10614
vey	-10615
▁lew	-10616
▁blah	-10617
▁ench	-10618
▁bundle	-10619
▁canvas	-10620
▁looming	-10621
elly	-10622
▁curly	-10623
▁tremor	-10624
▁fulfill	-10625
▁tickets	-10626
▁defenses	-10627
▁exclusive	-10628
▁flustered	-10629
▁environment	-10630
▁intoxicating	-10631
ikh	-10632
oked	-10633
▁jae	-10634
▁grips	-10635
▁shops	-10636
▁sport	-10637
▁abbess	-10638
▁nurses	-10639
▁defined	-10640
▁tunnels	-10641
▁feathers	-10642
▁shattering	-10643
▁unreadable	-10644
▁lure	-10645
▁kills	-10646
▁samson	-10647
▁leisure	-10648
▁tolerate	-10649
▁examining	-10650
▁resentment	-10651
▁cubs	-10652
▁subd	-10653
▁vaugh	-10654
▁bianka	-10655
▁brandy	-10656
▁terrace	-10657
▁gradually	-10658
▁entertaining	-10659
▁shadowhunters	-10660
▁reins	-10661
▁blindly	-10662
▁contrad	-10663
▁gabrielle	-10664
▁luxurious	-10665
▁persephone	-10666
umer	-10667
inent	-10668
▁rasp	-10669
▁combat	-10670
▁traged	-10671
▁highest	-10672
▁earrings	-10673
▁fletcher	-10674
▁stairwell	-10675
▁commanding	-10676
▁commercial	-10677
▁helplessly	-10678
▁pins	-10679
iantly	-10680
▁fragr	-10681
▁kneel	-10682
▁extent	-10683
▁sheath	-10684
▁unsett	-10685
▁welled	-10686
▁celestra	-10687
▁groceries	-10688
▁encl	-10689
aggers	-10690
▁fluffy	-10691
▁scotch	-10692
▁dimitri	-10693
▁lifestyle	-10694
▁resources	-10695
▁apologetic	-10696
doch	-10697
term	-10698
▁hom	-10699
▁forms	-10700
▁gypsy	-10701
chievous	-10702
▁elderly	-10703
▁murdoch	-10704
▁awakened	-10705
▁scratching	-10706
▁unfortunate	-10707
icles	-10708
▁raped	-10709
▁jaelyn	-10710
▁giselle	-10711
▁mounted	-10712
▁squeaked	-10713
▁downright	-10714
▁mischievous	-10715
▁irresistible	-10716
▁naz	-10717
▁dane	-10718
▁tart	-10719
▁undid	-10720
▁inquis	-10721
▁conflict	-10722
▁displayed	-10723
▁massaging	-10724
▁purposely	-10725
maid	-10726
unning	-10727
▁award	-10728
▁scrub	-10729
▁firing	-10730
▁potatoes	-10731
▁truthfully	-10732
bon	-10733
mph	-10734
linn	-10735
uits	-10736
▁rumm	-10737
worthy	-10738
▁optim	-10739
▁dissip	-10740
▁expose	-10741
▁inherit	-10742
▁jaylinn	-10743
▁fastened	-10744
▁transport	-10745
▁oo	-10746
▁pled	-10747
▁pops	-10748
▁ross	-10749
atedly	-10750
▁chatter	-10751
▁vibrator	-10752
▁contacted	-10753
▁telephone	-10754
▁traditional	-10755
ela	-10756
▁kal	-10757
▁apron	-10758
▁deaths	-10759
▁eighty	-10760
▁petite	-10761
▁daggers	-10762
▁outcome	-10763
cases	-10764
▁limb	-10765
▁irish	-10766
▁types	-10767
▁invent	-10768
▁kassie	-10769
▁beaming	-10770
▁presents	-10771
▁glittered	-10772
ppled	-10773
▁stim	-10774
dollar	-10775
▁ariyal	-10776
▁bodice	-10777
▁creamy	-10778
▁identify	-10779
▁sweetest	-10780
▁chemistry	-10781
sl	-10782
kno	-10783
ogue	-10784
▁rou	-10785
▁exhib	-10786
▁squat	-10787
▁leaders	-10788
▁seventy	-10789
▁mam	-10790
leans	-10791
licted	-10792
▁bould	-10793
▁santa	-10794
▁vomit	-10795
▁vinnie	-10796
gression	-10797
▁officers	-10798
▁hyper	-10799
▁throb	-10800
▁alicia	-10801
▁twinge	-10802
▁tattooed	-10803
▁motionless	-10804
▁eld	-10805
▁lus	-10806
▁data	-10807
▁viktor	-10808
▁manhatt	-10809
▁circular	-10810
▁colorado	-10811
▁restroom	-10812
▁suspicions	-10813
▁unexpectedly	-10814
rons	-10815
▁dud	-10816
▁nan	-10817
▁curses	-10818
▁douche	-10819
▁document	-10820
▁profound	-10821
▁apologies	-10822
▁worthless	-10823
▁supposedly	-10824
amping	-10825
theless	-10826
▁holden	-10827
▁intact	-10828
▁virginity	-10829
▁alternative	-10830
war	-10831
otes	-10832
size	-10833
▁addy	-10834
▁peep	-10835
▁cells	-10836
▁devoted	-10837
▁orleans	-10838
▁patting	-10839
▁tingles	-10840
▁twirled	-10841
▁harmless	-10842
▁involunt	-10843
jack	-10844
▁pixy	-10845
▁bears	-10846
▁haunt	-10847
▁gladly	-10848
▁hushed	-10849
▁mocked	-10850
▁unders	-10851
▁battles	-10852
▁regrets	-10853
▁divorced	-10854
▁valuable	-10855
ended	-10856
▁chis	-10857
▁brett	-10858
▁devina	-10859
▁hunted	-10860
▁juliet	-10861
kay	-10862
ombs	-10863
▁rus	-10864
▁fatig	-10865
▁clicking	-10866
▁customer	-10867
▁manhattan	-10868
▁nevertheless	-10869
pent	-10870
sell	-10871
▁coco	-10872
▁cracks	-10873
▁finnie	-10874
▁audible	-10875
▁mirrors	-10876
▁attacking	-10877
▁comforter	-10878
▁fits	-10879
▁peel	-10880
▁yoga	-10881
▁pelvis	-10882
▁forgiven	-10883
▁reverber	-10884
▁streamed	-10885
▁jed	-10886
▁oly	-10887
▁dimly	-10888
▁twists	-10889
▁verbal	-10890
▁deepest	-10891
▁harrison	-10892
▁insistent	-10893
ital	-10894
▁woo	-10895
▁cate	-10896
▁breed	-10897
▁advert	-10898
▁bucked	-10899
▁seeped	-10900
▁caitlin	-10901
▁wincing	-10902
▁priority	-10903
▁tentative	-10904
veling	-10905
▁crest	-10906
▁livie	-10907
▁tendr	-10908
itively	-10909
▁blinks	-10910
▁loomed	-10911
▁tantal	-10912
▁compelled	-10913
▁pointless	-10914
▁retrieved	-10915
▁sentiment	-10916
▁sincerity	-10917
▁diesel	-10918
▁doubled	-10919
▁effective	-10920
▁ak	-10921
▁gaw	-10922
▁irr	-10923
▁tube	-10924
▁resur	-10925
▁claims	-10926
▁spiked	-10927
voc	-10928
▁od	-10929
▁zar	-10930
▁diet	-10931
▁excru	-10932
▁label	-10933
▁olymp	-10934
▁clinic	-10935
▁saintcrow	-10936
▁signature	-10937
▁clu	-10938
▁unl	-10939
▁assistance	-10940
▁innocently	-10941
▁excruciating	-10942
▁confrontation	-10943
▁kent	-10944
▁lugg	-10945
▁thia	-10946
▁disor	-10947
▁notch	-10948
▁winks	-10949
▁gettin	-10950
▁psycho	-10951
▁snaked	-10952
▁central	-10953
▁croaked	-10954
▁portrait	-10955
▁remotely	-10956
▁slippery	-10957
▁briefcase	-10958
▁stupidity	-10959
oles	-10960
▁rac	-10961
▁nude	-10962
▁boston	-10963
▁chicks	-10964
▁risked	-10965
▁rounds	-10966
▁luggage	-10967
▁lurking	-10968
▁connections	-10969
ga	-10970
ux	-10971
▁cos	-10972
▁float	-10973
▁phrase	-10974
▁reverse	-10975
▁disguise	-10976
▁straddled	-10977
oma	-10978
▁fbi	-10979
▁umm	-10980
▁noir	-10981
▁calves	-10982
▁permit	-10983
▁rental	-10984
▁tennis	-10985
▁pajamas	-10986
▁mesmerized	-10987
rum	-10988
ista	-10989
▁ecl	-10990
▁assail	-10991
▁bridget	-10992
▁amazingly	-10993
▁reactions	-10994
▁conviction	-10995
▁strawberry	-10996
inges	-10997
▁clerk	-10998
▁kaylee	-10999
▁tracked	-11000
▁ultimately	-11001
enna	-11002
▁ollie	-11003
▁thief	-11004
▁dancers	-11005
▁marking	-11006
▁spanish	-11007
▁comprehend	-11008
▁impossibly	-11009
osh	-11010
hale	-11011
▁ditch	-11012
▁jayne	-11013
▁keith	-11014
▁lyric	-11015
▁florida	-11016
▁needles	-11017
▁outright	-11018
▁highlight	-11019
▁shrugging	-11020
▁additional	-11021
ivers	-11022
▁judd	-11023
▁sust	-11024
▁wears	-11025
▁acceler	-11026
▁agreeing	-11027
▁tickling	-11028
▁political	-11029
▁intimately	-11030
▁gee	-11031
▁babb	-11032
▁carn	-11033
uished	-11034
▁altar	-11035
▁county	-11036
▁puddle	-11037
▁angeles	-11038
▁succumb	-11039
▁churning	-11040
▁acceptable	-11041
▁simultaneously	-11042
urb	-11043
inkles	-11044
▁kyrie	-11045
▁lilly	-11046
▁torin	-11047
▁gaston	-11048
▁script	-11049
▁undead	-11050
▁clarity	-11051
▁mortain	-11052
▁borrowed	-11053
▁envision	-11054
▁increase	-11055
▁sickness	-11056
▁attending	-11057
▁emptiness	-11058
▁stephanie	-11059
irm	-11060
▁dent	-11061
▁glam	-11062
▁chills	-11063
▁united	-11064
▁unlock	-11065
▁wraith	-11066
▁achieve	-11067
▁thinkin	-11068
▁companies	-11069
▁depressed	-11070
▁bern	-11071
▁infin	-11072
▁ledge	-11073
▁trigg	-11074
▁antique	-11075
▁mckenzie	-11076
▁radiating	-11077
▁astonishment	-11078
▁ridiculously	-11079
grav	-11080
ormal	-11081
▁dele	-11082
▁vibe	-11083
▁aback	-11084
▁crave	-11085
▁dimple	-11086
▁divine	-11087
▁petals	-11088
▁console	-11089
▁contacts	-11090
▁luscious	-11091
▁dimension	-11092
▁proceeded	-11093
▁exaggerated	-11094
▁gene	-11095
▁bryson	-11096
▁burger	-11097
▁calend	-11098
▁exhale	-11099
▁jammed	-11100
▁hooking	-11101
▁tragedy	-11102
▁measured	-11103
▁plunging	-11104
des	-11105
rossed	-11106
▁bever	-11107
▁flora	-11108
▁momma	-11109
▁hideous	-11110
▁orgasms	-11111
▁insulted	-11112
nn	-11113
udite	-11114
▁smar	-11115
▁budge	-11116
▁clubs	-11117
▁relig	-11118
▁trips	-11119
▁union	-11120
▁grated	-11121
▁harass	-11122
▁inhale	-11123
▁ninety	-11124
▁romain	-11125
▁supper	-11126
daughter	-11127
▁buddies	-11128
▁millions	-11129
▁importantly	-11130
bra	-11131
sions	-11132
▁erra	-11133
arring	-11134
▁arist	-11135
▁fries	-11136
▁conver	-11137
▁cringe	-11138
▁refres	-11139
▁adopted	-11140
▁bottoms	-11141
▁british	-11142
▁counsel	-11143
▁afterwards	-11144
oops	-11145
▁cane	-11146
▁rowan	-11147
▁uneas	-11148
▁intrud	-11149
▁amongst	-11150
▁exhilar	-11151
▁flooding	-11152
▁grudging	-11153
▁reverend	-11154
▁stupidly	-11155
▁addressed	-11156
rik	-11157
asive	-11158
▁tran	-11159
▁boobs	-11160
▁chunk	-11161
▁loser	-11162
▁scrape	-11163
▁promptly	-11164
▁steaming	-11165
▁visitors	-11166
▁tod	-11167
ician	-11168
llian	-11169
▁bure	-11170
▁elim	-11171
wolves	-11172
▁erect	-11173
▁troll	-11174
▁lowers	-11175
▁rescued	-11176
▁paranoid	-11177
▁realised	-11178
▁disapproval	-11179
▁tide	-11180
▁evapor	-11181
▁slower	-11182
▁erudite	-11183
▁interfe	-11184
▁mothers	-11185
▁resumed	-11186
▁excitedly	-11187
▁investigator	-11188
▁kiz	-11189
▁bail	-11190
▁newest	-11191
▁scheme	-11192
▁wisdom	-11193
▁gruffly	-11194
▁massaged	-11195
▁virginia	-11196
▁therapist	-11197
▁reassurance	-11198
ferent	-11199
▁aggrav	-11200
▁fields	-11201
▁shrink	-11202
▁knotted	-11203
▁hurrying	-11204
▁sickening	-11205
▁caf	-11206
▁daw	-11207
maybe	-11208
▁rect	-11209
▁indec	-11210
▁niece	-11211
▁engulf	-11212
▁consuming	-11213
▁forcefully	-11214
ja	-11215
bbly	-11216
rise	-11217
iques	-11218
▁evie	-11219
asbeth	-11220
▁twent	-11221
▁kizira	-11222
▁unfast	-11223
▁benefits	-11224
▁yearning	-11225
▁adjusting	-11226
▁inherited	-11227
▁transformed	-11228
▁deke	-11229
▁swig	-11230
▁crist	-11231
▁opera	-11232
▁finest	-11233
▁latter	-11234
▁locate	-11235
▁cramped	-11236
▁disinte	-11237
▁troubles	-11238
▁determine	-11239
▁ellasbeth	-11240
▁enveloped	-11241
▁revelation	-11242
jad	-11243
▁upt	-11244
oping	-11245
inable	-11246
▁feroc	-11247
▁plunge	-11248
▁advance	-11249
▁blankly	-11250
▁outward	-11251
▁shotgun	-11252
▁slanted	-11253
▁slashed	-11254
▁establish	-11255
▁brightened	-11256
▁devastated	-11257
▁disappoint	-11258
▁smoldering	-11259
▁jeez	-11260
▁pean	-11261
▁plum	-11262
imeter	-11263
▁amjad	-11264
▁infer	-11265
▁darkly	-11266
▁ingrid	-11267
▁pursue	-11268
▁traces	-11269
▁crosses	-11270
▁oversized	-11271
▁sock	-11272
▁brent	-11273
▁paths	-11274
▁crimes	-11275
▁dewayne	-11276
▁ominous	-11277
▁graduation	-11278
▁independent	-11279
too	-11280
▁joh	-11281
oting	-11282
▁sylv	-11283
▁andar	-11284
▁shatter	-11285
▁theresa	-11286
▁chiseled	-11287
▁deliciously	-11288
▁resignation	-11289
high	-11290
▁wax	-11291
▁goat	-11292
finger	-11293
▁bland	-11294
▁dougal	-11295
▁facade	-11296
▁melody	-11297
▁rented	-11298
▁studies	-11299
▁trickled	-11300
▁organization	-11301
▁hind	-11302
▁ivory	-11303
▁leigh	-11304
▁pasta	-11305
▁spont	-11306
▁kindly	-11307
▁lillian	-11308
▁assassin	-11309
▁lam	-11310
ulent	-11311
aneous	-11312
▁china	-11313
▁recru	-11314
▁stink	-11315
▁groups	-11316
▁tablet	-11317
▁scaring	-11318
▁wyoming	-11319
▁minister	-11320
▁rumbling	-11321
▁elevators	-11322
cra	-11323
▁piv	-11324
▁tequ	-11325
ciless	-11326
▁clave	-11327
▁kicks	-11328
▁pearls	-11329
▁thumped	-11330
▁accounts	-11331
▁merciless	-11332
▁communication	-11333
gent	-11334
▁plac	-11335
▁purr	-11336
▁ideal	-11337
▁attent	-11338
▁taunted	-11339
▁valerie	-11340
▁contrary	-11341
▁destined	-11342
▁streaked	-11343
▁unzipped	-11344
about	-11345
▁pupp	-11346
▁bruce	-11347
▁applic	-11348
▁blinds	-11349
▁halluc	-11350
▁morrie	-11351
▁render	-11352
▁tequila	-11353
▁drenched	-11354
▁heartache	-11355
▁punishing	-11356
uh	-11357
rying	-11358
▁carlo	-11359
▁filed	-11360
▁navel	-11361
▁quilt	-11362
▁crazed	-11363
▁seraph	-11364
▁montgomery	-11365
ii	-11366
▁cert	-11367
▁stem	-11368
▁awoke	-11369
▁drakk	-11370
▁hitch	-11371
▁sinks	-11372
▁agrees	-11373
▁crowds	-11374
▁hypnot	-11375
▁sultry	-11376
▁enticing	-11377
▁technology	-11378
did	-11379
sten	-11380
woman	-11381
▁itch	-11382
▁nurs	-11383
▁jerry	-11384
▁angles	-11385
▁doorkno	-11386
▁ushered	-11387
▁anxiously	-11388
▁concluded	-11389
reg	-11390
say	-11391
iche	-11392
pret	-11393
▁revers	-11394
▁sternly	-11395
▁talents	-11396
▁squeezes	-11397
▁interfere	-11398
▁deliberate	-11399
hour	-11400
▁citiz	-11401
▁denny	-11402
▁risks	-11403
▁swings	-11404
▁bouquet	-11405
▁presley	-11406
▁reunion	-11407
▁clementine	-11408
bird	-11409
▁lull	-11410
▁vase	-11411
▁flour	-11412
▁leash	-11413
▁fathom	-11414
▁fooled	-11415
▁effectively	-11416
▁temporarily	-11417
▁kh	-11418
grees	-11419
▁arian	-11420
▁beams	-11421
▁condem	-11422
▁wither	-11423
▁ralphie	-11424
▁produced	-11425
▁bewildered	-11426
▁transferred	-11427
tor	-11428
corn	-11429
list	-11430
think	-11431
▁darn	-11432
steady	-11433
▁hangs	-11434
▁valet	-11435
pitched	-11436
▁karissa	-11437
▁expectantly	-11438
▁ja	-11439
▁nev	-11440
▁idly	-11441
▁grill	-11442
▁irony	-11443
▁tying	-11444
▁austin	-11445
▁trails	-11446
▁collins	-11447
▁cunning	-11448
▁degrees	-11449
iner	-11450
▁nois	-11451
enance	-11452
orters	-11453
▁braid	-11454
▁lashed	-11455
▁splash	-11456
▁scholar	-11457
▁advanced	-11458
▁tourists	-11459
▁depending	-11460
▁fireworks	-11461
ethe	-11462
▁raf	-11463
▁benjy	-11464
▁brass	-11465
▁fetch	-11466
▁raine	-11467
▁mixing	-11468
ensively	-11469
▁tormented	-11470
▁volunteered	-11471
yers	-11472
▁hust	-11473
terior	-11474
▁coiled	-11475
▁calendar	-11476
▁cupboard	-11477
▁reference	-11478
▁hush	-11479
▁husk	-11480
▁ouch	-11481
▁unden	-11482
▁advised	-11483
▁boiling	-11484
▁invaded	-11485
▁tipping	-11486
▁overlooking	-11487
oses	-11488
▁zomb	-11489
▁boxer	-11490
▁mayor	-11491
▁outta	-11492
▁anonym	-11493
▁cancel	-11494
▁gerald	-11495
▁glazed	-11496
▁vaughn	-11497
▁drugged	-11498
▁mascara	-11499
▁steered	-11500
▁mouthful	-11501
▁belongings	-11502
▁pors	-11503
▁bulge	-11504
▁craft	-11505
▁mobile	-11506
▁sacred	-11507
▁shriek	-11508
▁blinded	-11509
▁treacher	-11510
▁frequently	-11511
▁communicate	-11512
▁quin	-11513
▁sane	-11514
▁visits	-11515
▁zipped	-11516
▁capital	-11517
▁jackass	-11518
▁texting	-11519
▁doorknob	-11520
▁hammered	-11521
▁patterns	-11522
▁boundaries	-11523
▁connecting	-11524
▁loneliness	-11525
▁apologizing	-11526
andj	-11527
cede	-11528
▁shak	-11529
▁disgr	-11530
▁jandj	-11531
▁salty	-11532
▁queens	-11533
▁heavier	-11534
▁nursery	-11535
▁contemplated	-11536
▁shadowhunter	-11537
slee	-11538
cedes	-11539
storm	-11540
▁bled	-11541
▁snug	-11542
▁trim	-11543
rowing	-11544
▁licks	-11545
▁cradle	-11546
▁ransom	-11547
▁scroll	-11548
▁savored	-11549
wny	-11550
▁gn	-11551
minute	-11552
▁admin	-11553
▁donov	-11554
▁paddle	-11555
▁writhed	-11556
▁hoarsely	-11557
▁ordering	-11558
▁classroom	-11559
▁girlfriends	-11560
▁restaurants	-11561
▁encouragement	-11562
cest	-11563
▁gil	-11564
igail	-11565
▁plag	-11566
▁eternal	-11567
▁leonora	-11568
▁venture	-11569
▁agonizing	-11570
▁picturing	-11571
▁management	-11572
▁suppressed	-11573
kill	-11574
lene	-11575
▁frigid	-11576
▁unsteady	-11577
▁torturing	-11578
▁generation	-11579
▁grandchild	-11580
▁nervousness	-11581
def	-11582
irls	-11583
stage	-11584
▁aiming	-11585
▁candid	-11586
▁gerard	-11587
▁abigail	-11588
▁porsche	-11589
▁nibbling	-11590
▁documents	-11591
▁photographer	-11592
▁harpy	-11593
▁kacey	-11594
▁semes	-11595
▁drakkar	-11596
▁haunting	-11597
▁rewarded	-11598
▁unbelievably	-11599
▁dna	-11600
▁prox	-11601
▁mouse	-11602
▁absorb	-11603
▁balled	-11604
▁modest	-11605
▁commands	-11606
▁vegetables	-11607
▁vag	-11608
▁acts	-11609
▁fried	-11610
▁taunt	-11611
▁dispos	-11612
▁glitter	-11613
▁insight	-11614
▁settles	-11615
pres	-11616
lines	-11617
▁lookin	-11618
▁planes	-11619
▁seared	-11620
▁squeak	-11621
▁submit	-11622
▁patrons	-11623
▁smithie	-11624
▁wavered	-11625
▁michaela	-11626
▁rosa	-11627
angled	-11628
▁elves	-11629
▁saliv	-11630
▁monkey	-11631
▁donovan	-11632
sen	-11633
zil	-11634
inch	-11635
anter	-11636
rical	-11637
▁bunk	-11638
▁corb	-11639
▁boomed	-11640
▁harris	-11641
▁baffled	-11642
▁heights	-11643
▁printed	-11644
▁spartan	-11645
▁statues	-11646
▁conditions	-11647
▁forefinger	-11648
▁declaration	-11649
vant	-11650
▁sup	-11651
▁tah	-11652
▁gret	-11653
igning	-11654
mering	-11655
ortion	-11656
▁coord	-11657
▁ellen	-11658
▁simpl	-11659
▁suspe	-11660
▁medall	-11661
▁sailing	-11662
▁relative	-11663
▁scrambling	-11664
izer	-11665
▁aur	-11666
▁slay	-11667
▁rowdy	-11668
▁futile	-11669
▁blackmail	-11670
▁softening	-11671
▁hysterical	-11672
▁rive	-11673
▁shaw	-11674
▁sple	-11675
▁haven	-11676
▁villa	-11677
▁corpse	-11678
▁monica	-11679
▁muster	-11680
▁rebell	-11681
▁handcuff	-11682
▁indicate	-11683
▁scarcely	-11684
▁stallion	-11685
▁tailored	-11686
moil	-11687
▁asa	-11688
▁tugs	-11689
▁mated	-11690
▁warmer	-11691
▁warmly	-11692
▁slicing	-11693
▁swallows	-11694
▁providing	-11695
▁teenagers	-11696
▁werewolves	-11697
▁cem	-11698
estic	-11699
until	-11700
▁fuel	-11701
▁decad	-11702
▁pairs	-11703
▁warden	-11704
▁descend	-11705
▁nursing	-11706
▁turmoil	-11707
▁careless	-11708
▁mirrored	-11709
▁exploding	-11710
ucky	-11711
▁twe	-11712
ypher	-11713
▁vein	-11714
▁bossy	-11715
▁typed	-11716
▁lazily	-11717
▁praise	-11718
▁bandage	-11719
▁earning	-11720
▁popcorn	-11721
▁thumping	-11722
▁firsthand	-11723
▁residence	-11724
▁linc	-11725
▁bened	-11726
▁chast	-11727
▁peach	-11728
▁telep	-11729
▁patron	-11730
▁gaining	-11731
▁scandal	-11732
▁stabbing	-11733
▁impending	-11734
▁kidnapping	-11735
▁rins	-11736
▁chart	-11737
▁checks	-11738
▁averted	-11739
▁despised	-11740
▁container	-11741
▁eth	-11742
▁clas	-11743
▁dense	-11744
▁madly	-11745
▁flavor	-11746
▁reflect	-11747
▁sensible	-11748
▁tristran	-11749
▁intimidated	-11750
bid	-11751
star	-11752
stop	-11753
▁gau	-11754
▁vera	-11755
▁craig	-11756
▁sorce	-11757
▁tread	-11758
mouthed	-11759
▁trunks	-11760
▁western	-11761
▁accurate	-11762
▁cornered	-11763
▁disorient	-11764
▁difficulty	-11765
▁illuminated	-11766
nut	-11767
▁coin	-11768
▁defl	-11769
ograph	-11770
▁myles	-11771
▁evenly	-11772
▁thorne	-11773
▁carries	-11774
▁objects	-11775
▁explored	-11776
▁smallest	-11777
▁departure	-11778
bro	-11779
imity	-11780
inous	-11781
▁nand	-11782
▁luxen	-11783
▁moron	-11784
▁morgana	-11785
▁capacity	-11786
▁clapping	-11787
▁inhaling	-11788
▁weakened	-11789
▁restrained	-11790
naw	-11791
▁aye	-11792
ergus	-11793
▁gnaw	-11794
▁asses	-11795
▁blindfold	-11796
cover	-11797
dream	-11798
▁athe	-11799
derick	-11800
mented	-11801
▁unfor	-11802
▁chilly	-11803
▁lacked	-11804
▁laurel	-11805
▁rotten	-11806
▁splend	-11807
▁turner	-11808
▁hostage	-11809
▁kristen	-11810
▁leaping	-11811
▁machines	-11812
▁humiliating	-11813
▁extraordinary	-11814
agn	-11815
urg	-11816
van	-11817
▁blend	-11818
▁sheen	-11819
inished	-11820
▁fergus	-11821
▁draining	-11822
▁jc	-11823
▁fey	-11824
ingly	-11825
▁fain	-11826
▁norma	-11827
▁spoil	-11828
▁angela	-11829
▁bitten	-11830
▁bronze	-11831
▁shards	-11832
inations	-11833
ondition	-11834
▁conserv	-11835
▁leveled	-11836
▁ticking	-11837
▁holidays	-11838
▁gracefully	-11839
▁indifferent	-11840
▁unnecessary	-11841
irc	-11842
iami	-11843
being	-11844
urous	-11845
▁hazy	-11846
▁vika	-11847
▁gentl	-11848
▁miami	-11849
▁tomato	-11850
▁weeping	-11851
▁flawless	-11852
▁mornings	-11853
▁unwanted	-11854
▁shimmered	-11855
▁contentment	-11856
▁dub	-11857
▁deed	-11858
▁riot	-11859
encies	-11860
▁clothed	-11861
▁darkest	-11862
▁organized	-11863
▁performed	-11864
▁suspended	-11865
▁irrational	-11866
ctic	-11867
adian	-11868
▁vice	-11869
▁danie	-11870
▁scale	-11871
▁cattle	-11872
▁dismay	-11873
▁gregor	-11874
▁gravity	-11875
▁speeding	-11876
▁relatives	-11877
▁stammered	-11878
▁compelling	-11879
▁presentation	-11880
osity	-11881
pants	-11882
▁goof	-11883
▁pall	-11884
▁beers	-11885
▁lecie	-11886
atement	-11887
▁whined	-11888
▁barking	-11889
▁conceded	-11890
▁peripher	-11891
▁info	-11892
▁flown	-11893
▁jalal	-11894
▁glares	-11895
▁seeping	-11896
▁carefree	-11897
▁highness	-11898
▁blackness	-11899
▁hilarious	-11900
▁confronted	-11901
arn	-11902
lord	-11903
▁mead	-11904
ocused	-11905
▁incon	-11906
▁expense	-11907
▁workout	-11908
▁grandson	-11909
▁recovery	-11910
▁semester	-11911
orus	-11912
▁bin	-11913
▁dus	-11914
▁ely	-11915
▁ves	-11916
▁arts	-11917
▁sapp	-11918
▁latch	-11919
▁dislike	-11920
▁whirling	-11921
▁reluctance	-11922
omp	-11923
mont	-11924
ttes	-11925
▁aph	-11926
▁heed	-11927
▁iced	-11928
▁inse	-11929
▁dough	-11930
▁reson	-11931
▁sated	-11932
▁sneer	-11933
▁daxton	-11934
▁hooded	-11935
▁unfold	-11936
▁rainbow	-11937
▁smarter	-11938
▁distaste	-11939
▁opponent	-11940
▁reassured	-11941
▁standards	-11942
▁investigate	-11943
▁proposition	-11944
phil	-11945
▁obt	-11946
▁curs	-11947
▁kurt	-11948
▁puls	-11949
▁costs	-11950
▁lance	-11951
▁meets	-11952
▁siren	-11953
▁aphrod	-11954
▁copper	-11955
▁irises	-11956
▁wrench	-11957
▁xypher	-11958
▁marissa	-11959
▁heavenly	-11960
▁snickered	-11961
▁unnatural	-11962
nox	-11963
tly	-11964
▁cc	-11965
class	-11966
rived	-11967
▁mund	-11968
▁unra	-11969
▁actor	-11970
▁cryst	-11971
▁policy	-11972
▁lawyers	-11973
▁skilled	-11974
▁cabinets	-11975
▁mindless	-11976
▁sharpened	-11977
▁manipulate	-11978
▁positively	-11979
▁disconnected	-11980
▁contemplating	-11981
roe	-11982
oped	-11983
▁unse	-11984
ambers	-11985
▁circe	-11986
▁vital	-11987
▁brides	-11988
▁stacks	-11989
▁bulging	-11990
▁referred	-11991
▁understands	-11992
alia	-11993
▁rely	-11994
ikhail	-11995
▁davis	-11996
▁manif	-11997
▁rides	-11998
▁diving	-11999
▁squeal	-12000
▁emptied	-12001
▁balanced	-12002
▁prisoners	-12003
▁separating	-12004
now	-12005
▁cri	-12006
▁active	-12007
▁favors	-12008
etheless	-12009
▁dungeon	-12010
▁visitor	-12011
▁warlock	-12012
▁depended	-12013
▁gingerly	-12014
▁scotland	-12015
▁recovering	-12016
etery	-12017
othed	-12018
▁ansel	-12019
▁rests	-12020
▁dianna	-12021
▁cemetery	-12022
▁vehicles	-12023
▁washington	-12024
▁nonetheless	-12025
dad	-12026
from	-12027
▁hic	-12028
▁ley	-12029
grown	-12030
oured	-12031
story	-12032
▁bile	-12033
▁rattle	-12034
▁trisha	-12035
▁daniela	-12036
▁ignited	-12037
▁mingled	-12038
ervations	-12039
▁politics	-12040
▁unfolded	-12041
cipl	-12042
▁jap	-12043
bella	-12044
moving	-12045
▁rehab	-12046
▁shaun	-12047
▁cellar	-12048
▁empire	-12049
▁clawing	-12050
▁loosely	-12051
▁emphasis	-12052
▁eagerness	-12053
▁consideration	-12054
▁fus	-12055
▁maya	-12056
▁neon	-12057
▁roxy	-12058
▁daryl	-12059
▁havin	-12060
▁numer	-12061
▁proposed	-12062
▁sprinted	-12063
▁twinkling	-12064
▁basketball	-12065
▁sandwiches	-12066
dr	-12067
dia	-12068
▁dak	-12069
▁poke	-12070
▁billy	-12071
▁swirl	-12072
▁region	-12073
piration	-12074
▁mikhail	-12075
▁ribbons	-12076
▁barefoot	-12077
▁medallion	-12078
▁stretches	-12079
neg	-12080
isse	-12081
▁boil	-12082
▁mush	-12083
▁rapt	-12084
▁webs	-12085
ricted	-12086
▁airpl	-12087
▁steer	-12088
▁stere	-12089
▁haidar	-12090
▁metall	-12091
▁sweats	-12092
▁blatant	-12093
▁churned	-12094
▁mortals	-12095
▁tiptoes	-12096
▁incapable	-12097
anks	-12098
▁dol	-12099
uliar	-12100
▁asse	-12101
uation	-12102
▁booze	-12103
▁brigg	-12104
▁booked	-12105
▁indign	-12106
▁vanity	-12107
▁compart	-12108
▁episode	-12109
▁hottest	-12110
▁katrina	-12111
▁matches	-12112
▁embraced	-12113
▁tightens	-12114
▁****	-12115
▁lynn	-12116
▁alexa	-12117
▁comin	-12118
▁japan	-12119
▁hayden	-12120
▁marvel	-12121
▁papara	-12122
▁resume	-12123
▁widely	-12124
▁produce	-12125
▁critical	-12126
▁peculiar	-12127
▁unnerving	-12128
▁development	-12129
gthe	-12130
▁vile	-12131
▁astrid	-12132
▁brakes	-12133
▁bureau	-12134
▁cadeon	-12135
▁smirks	-12136
ribution	-12137
▁armchair	-12138
▁coursing	-12139
▁kiersten	-12140
▁powerless	-12141
▁reporters	-12142
▁definition	-12143
▁humiliated	-12144
▁importance	-12145
reen	-12146
icism	-12147
itable	-12148
▁slams	-12149
▁keeper	-12150
▁margie	-12151
▁affairs	-12152
▁chandel	-12153
▁harness	-12154
▁lantern	-12155
▁composed	-12156
▁coughing	-12157
▁weighing	-12158
ousy	-12159
▁ups	-12160
burst	-12161
ifting	-12162
▁valid	-12163
▁briggs	-12164
▁charms	-12165
▁nephil	-12166
▁ambrose	-12167
▁babysit	-12168
▁underest	-12169
▁belatedly	-12170
▁cheerfully	-12171
quo	-12172
▁bak	-12173
▁gabby	-12174
▁jerks	-12175
▁laila	-12176
▁races	-12177
▁attendant	-12178
▁executive	-12179
▁cec	-12180
proof	-12181
▁oath	-12182
▁rebu	-12183
▁bobbed	-12184
▁caller	-12185
▁manuel	-12186
▁prophe	-12187
▁sorted	-12188
▁alexion	-12189
▁retired	-12190
▁thanking	-12191
nde	-12192
▁ew	-12193
found	-12194
▁hawk	-12195
▁lays	-12196
acking	-12197
▁rival	-12198
▁risking	-12199
▁rattling	-12200
▁alterants	-12201
▁mig	-12202
▁bulk	-12203
▁chem	-12204
▁dips	-12205
achlan	-12206
▁neomi	-12207
▁archit	-12208
▁lacking	-12209
▁nicolai	-12210
▁neckline	-12211
▁maintained	-12212
▁rol	-12213
section	-12214
▁bursts	-12215
entially	-12216
▁cafeter	-12217
▁corrine	-12218
▁vanilla	-12219
▁paparazzi	-12220
▁established	-12221
dro	-12222
sla	-12223
edict	-12224
▁rays	-12225
▁ster	-12226
▁draws	-12227
▁wayne	-12228
▁coolly	-12229
▁maximus	-12230
▁entryway	-12231
▁nephilim	-12232
▁responds	-12233
▁artifacts	-12234
▁dissolved	-12235
▁overpower	-12236
▁dipl	-12237
▁dose	-12238
▁lash	-12239
▁mick	-12240
▁lydia	-12241
▁sayin	-12242
sleeved	-12243
▁downed	-12244
▁rugged	-12245
▁breathy	-12246
▁peeling	-12247
▁trickle	-12248
▁discovery	-12249
▁recommend	-12250
▁understatement	-12251
avia	-12252
▁dew	-12253
▁pla	-12254
▁blog	-12255
▁tons	-12256
▁vain	-12257
▁bless	-12258
▁dodge	-12259
▁pumps	-12260
▁anchor	-12261
▁facial	-12262
▁sculpt	-12263
▁diandra	-12264
▁boarding	-12265
▁architect	-12266
▁cafeteria	-12267
mat	-12268
guer	-12269
▁umb	-12270
icken	-12271
▁daze	-12272
▁erupt	-12273
▁linus	-12274
▁zarah	-12275
▁reared	-12276
▁rippling	-12277
▁sculpted	-12278
▁scrunched	-12279
▁supported	-12280
▁international	-12281
▁epic	-12282
▁ginny	-12283
▁vessel	-12284
▁bunched	-12285
▁illness	-12286
▁marguer	-12287
▁propose	-12288
▁ruffled	-12289
▁devotion	-12290
▁corporate	-12291
▁proximity	-12292
▁resembled	-12293
▁astonished	-12294
amic	-12295
▁hag	-12296
▁unp	-12297
state	-12298
▁ding	-12299
▁fuss	-12300
▁elias	-12301
▁lamps	-12302
▁obnox	-12303
▁pavel	-12304
▁spied	-12305
▁wyatt	-12306
▁avenue	-12307
▁reflex	-12308
▁watered	-12309
▁differences	-12310
ndan	-12311
ptic	-12312
would	-12313
▁pric	-12314
▁teet	-12315
▁bowls	-12316
▁phill	-12317
▁rearr	-12318
▁tales	-12319
▁scares	-12320
negation	-12321
▁bowling	-12322
▁roo	-12323
bound	-12324
legged	-12325
▁lucia	-12326
▁petty	-12327
▁robes	-12328
▁sidel	-12329
▁clears	-12330
▁mythos	-12331
▁serene	-12332
▁renewed	-12333
▁skidded	-12334
▁charging	-12335
▁ignition	-12336
▁murmuring	-12337
▁strongest	-12338
▁abnegation	-12339
▁celebrating	-12340
▁frustrating	-12341
ipse	-12342
▁eup	-12343
▁halls	-12344
▁salem	-12345
▁steely	-12346
▁yelped	-12347
▁outfits	-12348
▁silvery	-12349
▁starved	-12350
▁keyboard	-12351
▁unpredict	-12352
▁marguerite	-12353
▁motherfuck	-12354
▁confirmation	-12355
pa	-12356
phy	-12357
▁carr	-12358
▁bands	-12359
▁spins	-12360
▁crappy	-12361
▁crisis	-12362
▁dayton	-12363
▁sirens	-12364
▁sylvia	-12365
▁tumble	-12366
▁betting	-12367
▁roaming	-12368
▁sexiest	-12369
▁surreal	-12370
▁hungrily	-12371
▁instance	-12372
▁strangle	-12373
▁primitive	-12374
whe	-12375
uber	-12376
▁ceo	-12377
▁maze	-12378
▁brook	-12379
▁spank	-12380
▁chinese	-12381
▁alarming	-12382
▁pinching	-12383
▁reacting	-12384
▁meaningful	-12385
▁authorities	-12386
ilia	-12387
inqu	-12388
chool	-12389
▁vial	-12390
▁beads	-12391
▁athlet	-12392
▁dimmed	-12393
▁haidee	-12394
▁grandpa	-12395
▁octavia	-12396
▁rumpled	-12397
▁undress	-12398
▁wistful	-12399
▁decipher	-12400
▁horrific	-12401
▁regularly	-12402
▁businessman	-12403
shy	-12404
▁mm	-12405
▁elf	-12406
▁scoop	-12407
▁scout	-12408
▁pitched	-12409
▁lifeless	-12410
▁sheepish	-12411
▁smirking	-12412
▁medication	-12413
▁sew	-12414
▁cope	-12415
▁katy	-12416
▁abbot	-12417
▁cance	-12418
▁incom	-12419
▁robin	-12420
▁tilts	-12421
▁monroe	-12422
▁rueful	-12423
▁tosses	-12424
▁grazing	-12425
▁prodded	-12426
▁supreme	-12427
▁addiction	-12428
▁agitation	-12429
▁defending	-12430
▁meanwhile	-12431
bod	-12432
▁jag	-12433
sweet	-12434
▁brat	-12435
▁jaws	-12436
▁vince	-12437
▁delect	-12438
▁lodged	-12439
▁perpet	-12440
▁provoc	-12441
▁scents	-12442
▁spaces	-12443
▁flaring	-12444
▁stalker	-12445
▁battling	-12446
▁smacking	-12447
▁population	-12448
▁discovering	-12449
ek	-12450
▁pac	-12451
▁bonus	-12452
▁raspy	-12453
▁rober	-12454
▁bianca	-12455
▁morris	-12456
▁sobered	-12457
▁priceless	-12458
▁stockings	-12459
oya	-12460
yah	-12461
amon	-12462
pany	-12463
▁dyn	-12464
bride	-12465
eenth	-12466
▁morp	-12467
shirts	-12468
▁glenn	-12469
▁naomi	-12470
▁swipe	-12471
blooded	-12472
▁roamed	-12473
▁heightened	-12474
osis	-12475
▁gum	-12476
ouses	-12477
▁rhys	-12478
istine	-12479
▁delir	-12480
through	-12481
▁gloria	-12482
▁philos	-12483
▁rabbit	-12484
▁creaked	-12485
▁chambers	-12486
▁detached	-12487
▁devilish	-12488
▁dominant	-12489
▁shuffling	-12490
▁tightness	-12491
▁purposefully	-12492
illion	-12493
▁shyly	-12494
▁uncom	-12495
▁yells	-12496
nothing	-12497
▁pouted	-12498
▁seduced	-12499
▁addicted	-12500
▁suitable	-12501
▁wickedly	-12502
▁flattered	-12503
▁squinting	-12504
▁delicately	-12505
azer	-12506
byes	-12507
▁gram	-12508
▁morg	-12509
▁elite	-12510
▁radar	-12511
▁terse	-12512
▁attire	-12513
▁circus	-12514
▁peanut	-12515
▁enraged	-12516
▁reduced	-12517
▁brittany	-12518
▁sincerely	-12519
▁lan	-12520
▁quer	-12521
itution	-12522
▁blurry	-12523
▁juices	-12524
▁rocket	-12525
▁brooding	-12526
▁daydream	-12527
▁freckles	-12528
▁strictly	-12529
▁suppress	-12530
▁clarified	-12531
▁scorching	-12532
nan	-12533
▁enh	-12534
▁rosy	-12535
▁ruled	-12536
writing	-12537
▁sucker	-12538
▁designs	-12539
▁excused	-12540
▁electron	-12541
▁horribly	-12542
roc	-12543
ember	-12544
▁corm	-12545
▁rank	-12546
▁retal	-12547
▁tryin	-12548
▁andrus	-12549
▁smeared	-12550
▁bubbling	-12551
▁collided	-12552
▁mercedes	-12553
▁senseless	-12554
▁witnesses	-12555
▁milo	-12556
celain	-12557
▁eaves	-12558
▁effic	-12559
▁geary	-12560
▁stunt	-12561
▁duffel	-12562
▁martha	-12563
▁molten	-12564
▁obsess	-12565
▁clouded	-12566
▁signing	-12567
▁skimming	-12568
▁accompany	-12569
▁darkening	-12570
▁compromise	-12571
▁hesitating	-12572
▁retreating	-12573
alls	-12574
▁cinn	-12575
▁ripe	-12576
igible	-12577
▁conte	-12578
▁immob	-12579
▁nicer	-12580
▁takin	-12581
▁elaine	-12582
▁shrill	-12583
▁cuddled	-12584
▁dangled	-12585
▁probing	-12586
▁refusal	-12587
▁metallic	-12588
▁arguments	-12589
▁explosive	-12590
▁disappears	-12591
uty	-12592
ookie	-12593
brother	-12594
▁ancest	-12595
▁barker	-12596
▁sights	-12597
▁russell	-12598
▁porcelain	-12599
▁apprehension	-12600
dog	-12601
▁deer	-12602
▁quad	-12603
prints	-12604
▁donny	-12605
▁drying	-12606
▁histor	-12607
▁willed	-12608
▁enterpr	-12609
▁freeing	-12610
▁spreads	-12611
▁projects	-12612
put	-12613
burg	-12614
▁ach	-12615
▁penn	-12616
▁austr	-12617
▁bethy	-12618
▁platter	-12619
▁prolong	-12620
▁employer	-12621
▁momentum	-12622
▁numerous	-12623
▁stuffing	-12624
▁leisurely	-12625
▁supporting	-12626
▁dramatically	-12627
▁calf	-12628
▁coup	-12629
▁thad	-12630
▁wavy	-12631
▁bully	-12632
▁notor	-12633
▁bubbled	-12634
▁untouched	-12635
▁disappearance	-12636
▁pond	-12637
▁rees	-12638
▁diary	-12639
▁libby	-12640
▁darice	-12641
▁relish	-12642
▁blaming	-12643
▁consume	-12644
▁melinda	-12645
▁dazzling	-12646
▁doubtful	-12647
▁tendrils	-12648
▁upcoming	-12649
▁commander	-12650
iuml	-12651
▁mags	-12652
▁roast	-12653
▁cruelt	-12654
▁minded	-12655
▁nailed	-12656
▁uneven	-12657
▁vacant	-12658
▁withdra	-12659
▁lovingly	-12660
▁resolved	-12661
▁sporting	-12662
▁teachers	-12663
▁shim	-12664
inches	-12665
ptions	-12666
berries	-12667
▁hallow	-12668
▁consult	-12669
▁jawline	-12670
▁musical	-12671
▁cinnamon	-12672
▁opportun	-12673
▁craz	-12674
▁tris	-12675
▁beaum	-12676
▁german	-12677
▁quicker	-12678
▁approved	-12679
▁carolina	-12680
▁nandiuml	-12681
▁mortified	-12682
▁skeptical	-12683
▁interrogation	-12684
drop	-12685
▁tet	-12686
frame	-12687
urable	-12688
▁admon	-12689
▁deity	-12690
▁unpre	-12691
▁stifle	-12692
▁fatigue	-12693
▁flexing	-12694
▁childish	-12695
▁devoured	-12696
▁majority	-12697
mpt	-12698
sis	-12699
▁fib	-12700
ibble	-12701
▁deter	-12702
jecting	-12703
▁howled	-12704
▁tranqu	-12705
▁indulge	-12706
▁laurent	-12707
▁maneuver	-12708
▁nighting	-12709
▁initially	-12710
▁delectable	-12711
acc	-12712
hou	-12713
▁hound	-12714
▁slaps	-12715
▁corbin	-12716
▁drapes	-12717
▁shovel	-12718
▁bastian	-12719
▁improve	-12720
▁jillian	-12721
▁motives	-12722
▁shields	-12723
▁guarding	-12724
▁hurriedly	-12725
▁insulting	-12726
▁delightful	-12727
brown	-12728
▁cack	-12729
▁lind	-12730
▁bruno	-12731
▁buffy	-12732
▁cormel	-12733
▁listed	-12734
▁wheeled	-12735
▁bellowed	-12736
▁ferocity	-12737
▁slippers	-12738
belt	-12739
skin	-12740
▁excess	-12741
▁magnet	-12742
▁snakes	-12743
▁trance	-12744
▁battled	-12745
▁concealed	-12746
▁fox	-12747
▁diso	-12748
▁drip	-12749
▁hmmm	-12750
imated	-12751
rapped	-12752
seeing	-12753
▁adela	-12754
▁badge	-12755
▁piper	-12756
▁poppy	-12757
▁snack	-12758
▁plaster	-12759
▁seething	-12760
▁contented	-12761
▁gentleness	-12762
cor	-12763
ipe	-12764
coat	-12765
▁crut	-12766
▁flies	-12767
▁vines	-12768
fucking	-12769
respect	-12770
▁abused	-12771
▁alyssa	-12772
▁causes	-12773
▁chorus	-12774
▁claude	-12775
▁infuri	-12776
▁silhou	-12777
▁eclipse	-12778
▁erratic	-12779
▁raining	-12780
▁gestures	-12781
▁investment	-12782
▁hotels	-12783
▁conceal	-12784
▁demonic	-12785
▁implied	-12786
▁vicinity	-12787
▁previously	-12788
▁nightingale	-12789
pable	-12790
▁debr	-12791
▁entw	-12792
▁medb	-12793
▁mira	-12794
▁fates	-12795
▁sixth	-12796
▁suave	-12797
ielding	-12798
▁plague	-12799
▁uncons	-12800
▁decides	-12801
▁threads	-12802
▁intricate	-12803
▁tantalizing	-12804
▁unpredictable	-12805
▁howl	-12806
▁canop	-12807
▁waits	-12808
▁budget	-12809
▁ingred	-12810
▁cruelty	-12811
▁savitar	-12812
▁courtney	-12813
▁savannah	-12814
▁efficient	-12815
held	-12816
open	-12817
▁abdu	-12818
▁july	-12819
▁rover	-12820
▁beaded	-12821
▁habits	-12822
▁ripple	-12823
▁unbuck	-12824
▁coursed	-12825
▁jeopard	-12826
▁freshman	-12827
▁lounging	-12828
▁oblivion	-12829
▁stuttered	-12830
▁compartment	-12831
pid	-12832
oooo	-12833
▁dia	-12834
▁khak	-12835
▁rejo	-12836
▁tous	-12837
▁tourist	-12838
▁newfound	-12839
▁regained	-12840
▁squirming	-12841
▁astonishing	-12842
▁ic	-12843
▁cum	-12844
▁dots	-12845
▁epil	-12846
quoise	-12847
▁kizzy	-12848
▁predic	-12849
▁tragic	-12850
▁typing	-12851
▁stitches	-12852
▁miserably	-12853
▁depressing	-12854
▁submission	-12855
▁effortlessly	-12856
gher	-12857
mble	-12858
▁ire	-12859
atisf	-12860
▁soak	-12861
▁unwel	-12862
arettes	-12863
▁captiv	-12864
▁cheekbone	-12865
▁stubbornly	-12866
amel	-12867
will	-12868
▁ric	-12869
▁scab	-12870
ceptive	-12871
essions	-12872
stained	-12873
▁chores	-12874
▁resear	-12875
▁stored	-12876
▁largest	-12877
▁shakily	-12878
▁workers	-12879
▁penetrated	-12880
▁convenience	-12881
nap	-12882
vol	-12883
▁sul	-12884
▁tid	-12885
▁arie	-12886
uously	-12887
▁bloom	-12888
▁elena	-12889
▁goods	-12890
▁mandy	-12891
▁pried	-12892
▁baring	-12893
▁dealer	-12894
▁impass	-12895
▁spared	-12896
▁worker	-12897
kerchief	-12898
▁adamant	-12899
▁altered	-12900
▁exclaim	-12901
▁mcbride	-12902
▁playboy	-12903
▁vanessa	-12904
▁benedict	-12905
▁epilogue	-12906
▁pristine	-12907
▁deepening	-12908
▁turquoise	-12909
▁businesses	-12910
▁cigarettes	-12911
▁homecoming	-12912
▁handkerchief	-12913
▁pipe	-12914
▁trek	-12915
▁wept	-12916
lected	-12917
▁billie	-12918
▁watery	-12919
▁network	-12920
▁stamped	-12921
▁acquired	-12922
▁industry	-12923
▁intruder	-12924
▁trapping	-12925
▁twenties	-12926
▁jefferson	-12927
ndo	-12928
▁ot	-12929
lding	-12930
still	-12931
▁alli	-12932
▁kinky	-12933
▁overre	-12934
▁posted	-12935
▁glinted	-12936
▁halting	-12937
▁opposed	-12938
▁thicker	-12939
▁alterant	-12940
▁hardwood	-12941
▁twirling	-12942
▁resisting	-12943
▁maneuvered	-12944
▁reflecting	-12945
ua	-12946
aska	-12947
▁soci	-12948
andshy	-12949
anteed	-12950
▁bryce	-12951
▁shark	-12952
▁crouch	-12953
▁knocks	-12954
▁chatted	-12955
tie	-12956
▁tidy	-12957
icable	-12958
▁smoky	-12959
▁coaxed	-12960
▁trauma	-12961
▁turkey	-12962
ertained	-12963
▁sunrise	-12964
▁contracts	-12965
▁halloween	-12966
▁countenance	-12967
mic	-12968
look	-12969
mouth	-12970
▁econ	-12971
▁dishe	-12972
▁patrol	-12973
▁angrier	-12974
▁atlanta	-12975
▁tactics	-12976
▁gritting	-12977
▁sinister	-12978
▁cherished	-12979
▁involvement	-12980
▁remn	-12981
▁stel	-12982
screen	-12983
▁clitor	-12984
▁ornate	-12985
▁tackle	-12986
▁caresses	-12987
▁outburst	-12988
▁undressed	-12989
▁wad	-12990
▁ashes	-12991
▁boats	-12992
▁cease	-12993
▁tuxed	-12994
unction	-12995
▁parlor	-12996
▁swooped	-12997
▁district	-12998
▁planting	-12999
▁poisoned	-13000
▁tripping	-13001
▁urgently	-13002
▁boyfriends	-13003
▁enthusiastic	-13004
part	-13005
▁jak	-13006
▁clad	-13007
▁pris	-13008
▁cheers	-13009
▁discipl	-13010
▁hissing	-13011
▁glinting	-13012
▁spitting	-13013
▁handcuffs	-13014
▁aggression	-13015
▁guaranteed	-13016
thor	-13017
▁lum	-13018
▁merl	-13019
illance	-13020
▁alight	-13021
▁dodged	-13022
▁gloved	-13023
▁sliver	-13024
▁applause	-13025
▁celebrity	-13026
▁waterfall	-13027
▁surveillance	-13028
oret	-13029
▁bil	-13030
▁hoc	-13031
▁guid	-13032
▁paws	-13033
▁plug	-13034
▁gowns	-13035
▁paran	-13036
▁shave	-13037
▁assemb	-13038
▁lesser	-13039
▁marian	-13040
▁attacks	-13041
▁bradley	-13042
▁brewing	-13043
▁slumber	-13044
▁annivers	-13045
▁decadent	-13046
▁forceful	-13047
▁computers	-13048
hift	-13049
▁zak	-13050
▁maho	-13051
▁unhe	-13052
heeled	-13053
teenth	-13054
▁indian	-13055
▁overfl	-13056
▁samuel	-13057
▁candace	-13058
▁patients	-13059
▁speakers	-13060
▁subjects	-13061
▁assessing	-13062
ray	-13063
abas	-13064
deep	-13065
gany	-13066
ilyn	-13067
▁idle	-13068
▁kiev	-13069
▁sins	-13070
▁debate	-13071
▁spiral	-13072
▁bumping	-13073
▁dragons	-13074
▁mahogany	-13075
▁makeshift	-13076
▁scratches	-13077
lets	-13078
onda	-13079
rice	-13080
riers	-13081
▁pats	-13082
gantly	-13083
irable	-13084
▁bunny	-13085
▁harte	-13086
▁moral	-13087
▁protr	-13088
▁youre	-13089
▁grunts	-13090
▁arrives	-13091
▁readily	-13092
▁wonders	-13093
▁clueless	-13094
▁palpable	-13095
▁accommodate	-13096
iden	-13097
▁bly	-13098
▁tys	-13099
▁dill	-13100
▁mute	-13101
ington	-13102
resses	-13103
▁pains	-13104
▁theme	-13105
▁bidding	-13106
▁compete	-13107
▁creased	-13108
▁scented	-13109
▁alexander	-13110
mae	-13111
▁harb	-13112
▁jakob	-13113
▁kyrin	-13114
▁shrew	-13115
rington	-13116
▁infant	-13117
▁sprung	-13118
pleasure	-13119
▁baggage	-13120
▁behaved	-13121
▁mystics	-13122
▁crackling	-13123
▁spotlight	-13124
▁steadying	-13125
▁grudgingly	-13126
▁heartbreak	-13127
abe	-13128
amey	-13129
▁riv	-13130
▁brav	-13131
engers	-13132
▁dania	-13133
▁graze	-13134
▁ismae	-13135
▁jamey	-13136
▁solin	-13137
▁thrum	-13138
▁parade	-13139
▁pissing	-13140
▁strateg	-13141
▁weaving	-13142
▁situated	-13143
▁sniffing	-13144
▁volunteer	-13145
▁collective	-13146
▁lain	-13147
▁poet	-13148
▁yach	-13149
iation	-13150
passed	-13151
ppling	-13152
▁brynna	-13153
▁presum	-13154
▁tiptoe	-13155
▁thinned	-13156
utes	-13157
▁weep	-13158
▁burnt	-13159
▁hedge	-13160
aculous	-13161
▁cereal	-13162
▁flicks	-13163
▁jackie	-13164
▁genetic	-13165
▁relieve	-13166
▁stealth	-13167
▁thickly	-13168
▁wrinkles	-13169
▁obnoxious	-13170
▁replacing	-13171
▁depression	-13172
▁experiences	-13173
eous	-13174
hill	-13175
▁ooh	-13176
▁tame	-13177
▁embro	-13178
▁integr	-13179
▁packet	-13180
▁towers	-13181
▁andarion	-13182
▁skipping	-13183
▁countertop	-13184
inum	-13185
▁chop	-13186
▁intake	-13187
▁sentin	-13188
▁wiggle	-13189
▁slicked	-13190
▁sputtered	-13191
▁miraculous	-13192
▁incredulously	-13193
▁hul	-13194
▁idi	-13195
▁cann	-13196
▁intu	-13197
▁mels	-13198
icious	-13199
▁boone	-13200
umbered	-13201
▁drople	-13202
▁dusted	-13203
▁pooled	-13204
▁reconc	-13205
▁shapes	-13206
▁adalynn	-13207
▁hostile	-13208
▁relinqu	-13209
▁strikes	-13210
▁tremors	-13211
▁defiance	-13212
▁leverage	-13213
▁puckered	-13214
▁releases	-13215
▁imprisoned	-13216
▁mentioning	-13217
▁practicing	-13218
▁motherfucker	-13219
▁uncontrollably	-13220
agar	-13221
▁eag	-13222
▁wiz	-13223
▁cram	-13224
▁rena	-13225
▁swims	-13226
▁colour	-13227
▁interv	-13228
▁breakup	-13229
▁culture	-13230
▁glowered	-13231
▁dizziness	-13232
▁simmering	-13233
▁pronounced	-13234
▁staggering	-13235
▁compliments	-13236
▁intentionally	-13237
inter	-13238
▁carm	-13239
▁dislo	-13240
▁coyote	-13241
▁dotted	-13242
▁forbid	-13243
▁mature	-13244
▁recons	-13245
▁tucker	-13246
▁subdued	-13247
especially	-13248
▁deafening	-13249
▁overlooked	-13250
▁unconsciously	-13251
▁scam	-13252
▁deals	-13253
▁indie	-13254
▁puffy	-13255
▁slits	-13256
▁spicy	-13257
▁whine	-13258
▁bowing	-13259
▁pedest	-13260
▁polish	-13261
▁raking	-13262
▁easiest	-13263
▁freezer	-13264
▁winston	-13265
▁stillness	-13266
▁collecting	-13267
ipal	-13268
▁cald	-13269
▁mish	-13270
alling	-13271
dening	-13272
▁susie	-13273
▁tiles	-13274
▁wasnt	-13275
▁curtly	-13276
▁dakota	-13277
▁jabbed	-13278
▁models	-13279
▁beverly	-13280
▁throaty	-13281
▁interven	-13282
▁prophecy	-13283
▁wriggled	-13284
▁closeness	-13285
▁inability	-13286
▁observation	-13287
je	-13288
eem	-13289
atch	-13290
table	-13291
▁ceri	-13292
▁coma	-13293
▁knit	-13294
▁reno	-13295
▁coats	-13296
▁deton	-13297
▁lewis	-13298
▁vigor	-13299
uriated	-13300
▁singer	-13301
▁transf	-13302
▁briskly	-13303
▁hauling	-13304
▁submiss	-13305
▁accusations	-13306
▁conclusions	-13307
gon	-13308
las	-13309
zied	-13310
▁tox	-13311
▁sass	-13312
▁secl	-13313
▁baked	-13314
▁goals	-13315
▁lodge	-13316
issance	-13317
▁ariana	-13318
▁glower	-13319
▁harbor	-13320
▁jersey	-13321
▁perple	-13322
▁strung	-13323
▁tinged	-13324
▁trucks	-13325
▁debated	-13326
▁lighten	-13327
▁thirsty	-13328
▁cheering	-13329
▁opinions	-13330
▁assaulted	-13331
▁infuriated	-13332
▁paranormal	-13333
▁anniversary	-13334
spr	-13335
burn	-13336
▁cater	-13337
▁plaid	-13338
▁apolly	-13339
▁harmed	-13340
worlders	-13341
▁awfully	-13342
▁thundered	-13343
▁transformation	-13344
▁dv	-13345
tens	-13346
▁hut	-13347
iders	-13348
▁gurg	-13349
▁bonds	-13350
▁darts	-13351
▁entit	-13352
▁repro	-13353
▁cities	-13354
▁dreaded	-13355
▁appalled	-13356
▁clitoris	-13357
▁associated	-13358
▁straighter	-13359
hus	-13360
broken	-13361
▁draft	-13362
▁juicy	-13363
▁mirth	-13364
▁piles	-13365
▁spons	-13366
▁toyed	-13367
fitting	-13368
hundred	-13369
▁prosec	-13370
▁wilson	-13371
▁coaxing	-13372
▁inserted	-13373
▁crumbling	-13374
▁paralyzed	-13375
▁struggles	-13376
▁wrestling	-13377
▁eer	-13378
▁deft	-13379
▁gutt	-13380
▁hunk	-13381
▁embed	-13382
▁jelly	-13383
▁samil	-13384
▁sciss	-13385
▁blythe	-13386
▁pantry	-13387
▁sample	-13388
▁purposes	-13389
▁assumption	-13390
▁comfortably	-13391
▁understandable	-13392
ox	-13393
lli	-13394
▁yo	-13395
ucks	-13396
check	-13397
pling	-13398
▁curry	-13399
▁raged	-13400
▁serum	-13401
▁boards	-13402
▁buffet	-13403
▁harden	-13404
▁solved	-13405
▁spying	-13406
▁wedged	-13407
▁garment	-13408
▁stiffen	-13409
▁wrought	-13410
▁dedicated	-13411
▁extending	-13412
▁evaporated	-13413
▁passionately	-13414
ucc	-13415
▁delph	-13416
▁theat	-13417
chamber	-13418
olation	-13419
▁carnal	-13420
▁forged	-13421
▁inexpl	-13422
▁inject	-13423
▁sidest	-13424
▁pricked	-13425
▁fingered	-13426
▁tangling	-13427
▁precision	-13428
▁typically	-13429
▁legitimate	-13430
▁defensively	-13431
ules	-13432
amous	-13433
▁peck	-13434
▁horde	-13435
▁makin	-13436
▁torch	-13437
▁zanes	-13438
▁endear	-13439
▁jendan	-13440
▁pajama	-13441
▁sprout	-13442
▁streaks	-13443
▁sweeter	-13444
▁tainted	-13445
▁apollymi	-13446
▁predicted	-13447
▁exhausting	-13448
▁reservations	-13449
dest	-13450
heen	-13451
▁sis	-13452
▁cath	-13453
▁june	-13454
▁mull	-13455
▁sket	-13456
▁trop	-13457
▁girly	-13458
▁roger	-13459
▁dissol	-13460
▁doomed	-13461
▁echoes	-13462
▁harper	-13463
▁meadow	-13464
▁rhonda	-13465
▁wailed	-13466
affected	-13467
▁seatbelt	-13468
▁switching	-13469
▁wrenching	-13470
▁outrageous	-13471
▁penetrating	-13472
▁alix	-13473
unches	-13474
▁aches	-13475
▁atlas	-13476
▁beans	-13477
▁funds	-13478
▁haley	-13479
▁diplom	-13480
▁tinted	-13481
▁couches	-13482
▁martine	-13483
▁mundane	-13484
▁arousing	-13485
▁beaumont	-13486
▁disheveled	-13487
▁resemblance	-13488
clad	-13489
▁kip	-13490
▁shoo	-13491
▁album	-13492
▁donna	-13493
▁troph	-13494
▁boyish	-13495
▁serial	-13496
▁thirst	-13497
▁topped	-13498
▁twined	-13499
▁bluntly	-13500
▁plummet	-13501
▁undoing	-13502
▁aristocr	-13503
▁inconven	-13504
▁isolated	-13505
▁betraying	-13506
▁devouring	-13507
▁entertained	-13508
▁increasingly	-13509
▁sau	-13510
▁hike	-13511
▁daric	-13512
▁hawai	-13513
▁prone	-13514
▁cranky	-13515
▁dreamy	-13516
▁freaky	-13517
▁madame	-13518
▁marker	-13519
▁winner	-13520
▁caramel	-13521
▁trotted	-13522
▁apartments	-13523
▁intriguing	-13524
ixed	-13525
▁fry	-13526
▁taps	-13527
▁humid	-13528
▁lousy	-13529
▁tablo	-13530
▁unrel	-13531
▁boiled	-13532
▁devoid	-13533
▁emails	-13534
▁proced	-13535
▁wilder	-13536
▁escapes	-13537
▁fooling	-13538
▁riveted	-13539
▁scenery	-13540
▁beatrice	-13541
▁hallways	-13542
▁reasoning	-13543
▁surrendered	-13544
kiss	-13545
odes	-13546
▁rak	-13547
gated	-13548
thank	-13549
▁bush	-13550
▁worsh	-13551
ulative	-13552
▁extrav	-13553
▁perver	-13554
▁rained	-13555
▁rooted	-13556
▁saroya	-13557
▁solely	-13558
▁greatly	-13559
▁huskily	-13560
▁lunatic	-13561
▁surging	-13562
▁coherent	-13563
▁everyday	-13564
▁anonymous	-13565
▁installed	-13566
▁transition	-13567
▁calculating	-13568
▁successfully	-13569
rix	-13570
rate	-13571
▁alf	-13572
▁lamb	-13573
papers	-13574
▁fract	-13575
▁haste	-13576
▁orche	-13577
▁plead	-13578
▁wakes	-13579
▁lucius	-13580
▁sarila	-13581
▁mexican	-13582
▁pursuit	-13583
▁uneasily	-13584
▁unleashed	-13585
fting	-13586
▁sept	-13587
▁weed	-13588
bruary	-13589
rained	-13590
▁flips	-13591
▁chapel	-13592
▁tensing	-13593
▁definite	-13594
▁detailed	-13595
▁mingling	-13596
▁reverent	-13597
▁sneakers	-13598
▁suitcases	-13599
▁opportunities	-13600
sor	-13601
urdy	-13602
▁harv	-13603
▁burke	-13604
▁chess	-13605
▁fiber	-13606
▁sidra	-13607
▁slope	-13608
▁auburn	-13609
▁hiring	-13610
▁footing	-13611
▁natasha	-13612
▁plagued	-13613
▁beladors	-13614
▁blissful	-13615
▁selected	-13616
▁predatory	-13617
▁shameless	-13618
▁microphone	-13619
▁unaffected	-13620
▁affectionate	-13621
iry	-13622
toe	-13623
▁nora	-13624
▁shhh	-13625
awning	-13626
▁betty	-13627
▁ruins	-13628
▁slash	-13629
husband	-13630
▁lawson	-13631
▁microw	-13632
▁mumble	-13633
▁weston	-13634
▁payback	-13635
▁punches	-13636
▁chilling	-13637
▁expanded	-13638
▁littered	-13639
▁monitors	-13640
▁propping	-13641
▁strolling	-13642
▁delivering	-13643
wa	-13644
asso	-13645
beit	-13646
bers	-13647
caid	-13648
uate	-13649
blond	-13650
▁lani	-13651
▁gloom	-13652
oration	-13653
▁bloods	-13654
▁miller	-13655
▁insists	-13656
▁rotting	-13657
▁babbling	-13658
▁signaled	-13659
▁perimeter	-13660
▁production	-13661
▁refreshing	-13662
quin	-13663
▁lis	-13664
agues	-13665
▁soil	-13666
▁wits	-13667
▁womb	-13668
▁afric	-13669
▁wires	-13670
▁scruff	-13671
▁collars	-13672
▁gunshot	-13673
▁martini	-13674
▁shaheen	-13675
▁awaiting	-13676
▁realizes	-13677
▁voicemail	-13678
▁electrical	-13679
▁newspapers	-13680
▁remarkable	-13681
gill	-13682
iate	-13683
blown	-13684
▁kilt	-13685
▁rice	-13686
▁risky	-13687
▁styxx	-13688
▁nibble	-13689
▁purely	-13690
▁protests	-13691
▁grimacing	-13692
oner	-13693
▁dow	-13694
▁ein	-13695
▁anita	-13696
▁hairy	-13697
▁rider	-13698
▁beasts	-13699
▁viking	-13700
▁clarisse	-13701
▁revulsion	-13702
▁triggered	-13703
▁emphatically	-13704
boat	-13705
deal	-13706
illes	-13707
▁amaz	-13708
▁clap	-13709
▁pays	-13710
▁syll	-13711
▁tash	-13712
▁allen	-13713
▁chalk	-13714
▁frail	-13715
▁tribe	-13716
▁classy	-13717
▁corset	-13718
▁dudley	-13719
▁fanned	-13720
▁filing	-13721
▁menace	-13722
▁ducking	-13723
▁kincaid	-13724
▁mustang	-13725
▁tatiana	-13726
▁tousled	-13727
▁unmoving	-13728
▁momentary	-13729
▁murderous	-13730
▁recalling	-13731
▁acquaintance	-13732
▁disbelieving	-13733
ba	-13734
pen	-13735
olic	-13736
▁nun	-13737
▁pod	-13738
▁unim	-13739
sively	-13740
▁drill	-13741
▁wayde	-13742
▁eerily	-13743
▁gifted	-13744
▁sailed	-13745
▁flaming	-13746
▁honored	-13747
▁tangible	-13748
▁ventured	-13749
▁interpret	-13750
▁shirtless	-13751
amy	-13752
berg	-13753
kirt	-13754
▁bem	-13755
▁moo	-13756
▁bass	-13757
▁grump	-13758
▁scold	-13759
▁idiots	-13760
▁sloppy	-13761
▁boulder	-13762
▁majesty	-13763
▁cristina	-13764
▁guttural	-13765
▁infected	-13766
▁scrutiny	-13767
▁swiveled	-13768
▁associate	-13769
▁immortals	-13770
▁impulsive	-13771
▁motioning	-13772
▁preparation	-13773
▁suggestions	-13774
club	-13775
ilah	-13776
lest	-13777
nton	-13778
anche	-13779
rella	-13780
▁flann	-13781
▁multi	-13782
▁reads	-13783
▁syrup	-13784
▁prying	-13785
▁treats	-13786
▁viewed	-13787
▁cupcake	-13788
▁exterior	-13789
▁inspired	-13790
▁commotion	-13791
▁expectation	-13792
ho	-13793
eeps	-13794
▁nip	-13795
▁ooo	-13796
▁hass	-13797
▁hicc	-13798
▁whee	-13799
▁appra	-13800
▁runes	-13801
▁towns	-13802
▁hardening	-13803
▁insisting	-13804
▁manicured	-13805
▁isla	-13806
▁alleg	-13807
▁aloof	-13808
▁brody	-13809
▁cocks	-13810
▁toned	-13811
▁baking	-13812
▁digger	-13813
▁factor	-13814
▁shoves	-13815
▁blister	-13816
▁bobbing	-13817
▁charmed	-13818
▁tricked	-13819
▁twinkle	-13820
▁buttoned	-13821
▁coloring	-13822
▁february	-13823
▁inquired	-13824
▁invasion	-13825
▁thornton	-13826
▁heartless	-13827
▁replacement	-13828
▁nig	-13829
▁rey	-13830
▁tula	-13831
▁clues	-13832
▁scree	-13833
▁stash	-13834
▁bakery	-13835
▁sardon	-13836
▁cheered	-13837
▁cupcakes	-13838
▁fumbling	-13839
▁shielding	-13840
▁sprawling	-13841
▁thrilling	-13842
▁gratefully	-13843
▁interruption	-13844
▁cans	-13845
▁blues	-13846
▁repay	-13847
▁canopy	-13848
▁sensit	-13849
▁stacey	-13850
▁chester	-13851
▁stating	-13852
▁walkway	-13853
▁airplane	-13854
▁applying	-13855
▁ruefully	-13856
▁snarling	-13857
▁passengers	-13858
▁undeniable	-13859
▁displeasure	-13860
sex	-13861
▁tux	-13862
▁cape	-13863
▁meds	-13864
▁vend	-13865
▁vint	-13866
called	-13867
weight	-13868
▁attach	-13869
▁hearth	-13870
▁retort	-13871
▁soared	-13872
▁dishwas	-13873
▁quieted	-13874
▁nuzzling	-13875
▁rustling	-13876
▁wretched	-13877
▁compulsion	-13878
▁pleasantly	-13879
▁transparent	-13880
overs	-13881
utter	-13882
▁clog	-13883
▁laps	-13884
▁trez	-13885
uating	-13886
▁exert	-13887
▁hunch	-13888
ivalent	-13889
▁apples	-13890
▁banter	-13891
▁dorian	-13892
▁supple	-13893
▁whereas	-13894
▁crackled	-13895
▁debating	-13896
▁gigantic	-13897
▁privilege	-13898
▁triumphant	-13899
▁wheelchair	-13900
▁protectively	-13901
ahn	-13902
post	-13903
▁flur	-13904
▁kidd	-13905
▁grape	-13906
▁bonded	-13907
▁novels	-13908
▁rammed	-13909
▁sturdy	-13910
▁couldnt	-13911
▁seating	-13912
▁glimpsed	-13913
▁stripper	-13914
▁magically	-13915
▁sweatpants	-13916
▁handwriting	-13917
▁anticipating	-13918
▁iris	-13919
▁jost	-13920
▁muddy	-13921
▁repul	-13922
▁ships	-13923
▁wipes	-13924
▁allerg	-13925
▁marred	-13926
▁frenzied	-13927
▁marching	-13928
▁reprieve	-13929
▁scramble	-13930
▁severely	-13931
▁instrument	-13932
▁candlelight	-13933
icle	-13934
▁marc	-13935
▁hooks	-13936
▁maryse	-13937
▁bedding	-13938
▁reversed	-13939
▁sergeant	-13940
▁librarian	-13941
▁offensive	-13942
▁queensland	-13943
▁treacherous	-13944
amer	-13945
cers	-13946
hens	-13947
▁lup	-13948
▁nub	-13949
▁ome	-13950
dling	-13951
▁aged	-13952
▁chau	-13953
▁omort	-13954
▁pools	-13955
avering	-13956
▁chaise	-13957
▁define	-13958
▁dillon	-13959
▁euphor	-13960
▁faerie	-13961
▁fished	-13962
▁hurled	-13963
▁korbie	-13964
▁puffed	-13965
▁panther	-13966
▁reserve	-13967
boyfriend	-13968
▁faithful	-13969
▁filtered	-13970
▁frighten	-13971
▁steadied	-13972
▁breakdown	-13973
▁smothered	-13974
▁respectable	-13975
▁restraining	-13976
▁supernatural	-13977
yon	-13978
▁ou	-13979
▁uri	-13980
ourse	-13981
stood	-13982
▁brid	-13983
▁coal	-13984
▁cran	-13985
▁ranc	-13986
istair	-13987
▁tails	-13988
▁blaize	-13989
▁kidnap	-13990
▁braydon	-13991
▁cluster	-13992
▁flannel	-13993
▁murders	-13994
▁pivoted	-13995
▁alistair	-13996
▁banished	-13997
▁gambling	-13998
▁intercom	-13999
▁julianna	-14000
▁plotting	-14001
▁shredded	-14002
▁execution	-14003
▁privately	-14004
▁contemplate	-14005
▁wonderfully	-14006
tos	-14007
tub	-14008
▁bj	-14009
▁eb	-14010
vial	-14011
▁lob	-14012
▁via	-14013
▁pawn	-14014
abouts	-14015
thorne	-14016
▁mourn	-14017
▁posed	-14018
▁stalk	-14019
▁vocal	-14020
ologist	-14021
▁assets	-14022
▁kaiden	-14023
▁runway	-14024
▁tavern	-14025
▁bloomed	-14026
▁handbag	-14027
▁minimum	-14028
▁tissues	-14029
▁gracious	-14030
▁comforted	-14031
▁principal	-14032
▁supportive	-14033
hop	-14034
mie	-14035
▁rae	-14036
spring	-14037
utions	-14038
vation	-14039
▁risen	-14040
▁stosh	-14041
▁teams	-14042
▁nipping	-14043
▁barriers	-14044
▁mischief	-14045
▁veronica	-14046
▁desirable	-14047
▁emanating	-14048
▁enjoyment	-14049
▁chattering	-14050
▁sacrificed	-14051
▁interjected	-14052
▁predicament	-14053
leine	-14054
▁mint	-14055
▁rune	-14056
▁twil	-14057
▁biker	-14058
▁caged	-14059
▁cycle	-14060
▁solie	-14061
▁unnot	-14062
▁colder	-14063
▁formid	-14064
▁schools	-14065
▁screech	-14066
▁beckoned	-14067
▁delusion	-14068
▁graduate	-14069
▁sapphire	-14070
▁mistaking	-14071
▁persisted	-14072
▁unwelcome	-14073
▁containing	-14074
▁disoriented	-14075
▁granddaughter	-14076
alt	-14077
ede	-14078
iors	-14079
umsy	-14080
▁myk	-14081
▁vet	-14082
quate	-14083
▁hans	-14084
▁crumb	-14085
▁devin	-14086
▁nigel	-14087
▁seein	-14088
▁whiff	-14089
▁tricky	-14090
▁tuxedo	-14091
▁rehearsal	-14092
▁snatching	-14093
dis	-14094
need	-14095
▁arse	-14096
▁clou	-14097
▁fert	-14098
izable	-14099
▁acres	-14100
▁caffe	-14101
▁mikey	-14102
▁outdo	-14103
▁greasy	-14104
▁scales	-14105
▁pitiful	-14106
▁quieter	-14107
▁website	-14108
▁adelaide	-14109
▁enclosed	-14110
▁husbands	-14111
▁mumbling	-14112
▁resolute	-14113
▁scrolled	-14114
▁spacious	-14115
▁spanking	-14116
got	-14117
och	-14118
cold	-14119
▁bour	-14120
cerned	-14121
stream	-14122
▁maker	-14123
▁piped	-14124
▁encirc	-14125
▁erased	-14126
▁leanne	-14127
▁salute	-14128
▁smugly	-14129
▁fiddled	-14130
▁jogging	-14131
▁mykolas	-14132
▁paramed	-14133
▁scolded	-14134
▁scurried	-14135
▁stricken	-14136
▁subsided	-14137
▁inspection	-14138
▁manipulated	-14139
▁conservative	-14140
eav	-14141
kan	-14142
bbery	-14143
ulars	-14144
▁kale	-14145
▁caves	-14146
▁stoic	-14147
▁clumsy	-14148
▁closure	-14149
▁greedily	-14150
▁homemade	-14151
▁stifling	-14152
▁madeleine	-14153
▁microwave	-14154
▁dishwasher	-14155
▁separation	-14156
▁meaningless	-14157
new	-14158
leigh	-14159
leton	-14160
▁pans	-14161
▁pots	-14162
▁bolts	-14163
▁swamp	-14164
▁endeav	-14165
▁floral	-14166
▁scored	-14167
▁sexier	-14168
▁clearer	-14169
▁coating	-14170
▁decklan	-14171
▁moretti	-14172
▁trimmed	-14173
▁centered	-14174
▁december	-14175
▁remnants	-14176
▁tropical	-14177
▁miniature	-14178
▁nonchalant	-14179
▁submissive	-14180
▁renaissance	-14181
▁explanations	-14182
si	-14183
uch	-14184
neck	-14185
▁cee	-14186
▁duh	-14187
askab	-14188
athon	-14189
opath	-14190
▁halo	-14191
▁boost	-14192
▁fatal	-14193
▁opted	-14194
▁greece	-14195
▁subtly	-14196
▁tickle	-14197
▁formula	-14198
▁clenches	-14199
▁entwined	-14200
▁evenings	-14201
▁twilight	-14202
▁umbrella	-14203
▁hostility	-14204
▁ingredients	-14205
mers	-14206
orie	-14207
wide	-14208
books	-14209
escri	-14210
ottle	-14211
▁peas	-14212
ocious	-14213
▁teens	-14214
▁unint	-14215
▁yacht	-14216
▁favour	-14217
▁native	-14218
▁server	-14219
▁zombie	-14220
▁glimmer	-14221
▁leonard	-14222
▁outdoor	-14223
▁pitcher	-14224
▁signals	-14225
▁athletic	-14226
▁extravag	-14227
▁grounded	-14228
▁mourning	-14229
▁pleasing	-14230
▁sessions	-14231
▁swearing	-14232
▁clipboard	-14233
▁deception	-14234
▁formidable	-14235
▁suffocating	-14236
cur	-14237
store	-14238
owered	-14239
vested	-14240
▁cower	-14241
▁drums	-14242
▁hasty	-14243
▁reeve	-14244
itating	-14245
▁arrows	-14246
▁paired	-14247
▁ramsey	-14248
▁salary	-14249
▁awaited	-14250
▁bitches	-14251
▁brennan	-14252
▁montana	-14253
▁sensuality	-14254
sus	-14255
resp	-14256
attie	-14257
▁beep	-14258
▁twig	-14259
erting	-14260
▁gauge	-14261
▁inhab	-14262
▁uriah	-14263
▁brazil	-14264
▁condes	-14265
▁crunch	-14266
▁glassy	-14267
▁taltos	-14268
▁triple	-14269
▁battery	-14270
▁columns	-14271
▁maaskab	-14272
▁mackenna	-14273
▁stomping	-14274
▁doorframe	-14275
▁ferocious	-14276
▁veronique	-14277
▁unconcerned	-14278
ket	-14279
tled	-14280
▁chi	-14281
ensed	-14282
sight	-14283
vable	-14284
▁fitz	-14285
▁wins	-14286
▁clara	-14287
▁titan	-14288
▁hoodie	-14289
▁maniac	-14290
▁motive	-14291
▁poster	-14292
▁sweeps	-14293
▁vagina	-14294
▁salvage	-14295
▁clattered	-14296
▁disintegr	-14297
▁willpower	-14298
▁conspiracy	-14299
edy	-14300
▁edden	-14301
▁slate	-14302
▁stomp	-14303
▁ridden	-14304
▁strewn	-14305
▁suther	-14306
ductions	-14307
▁appoint	-14308
▁bathtub	-14309
▁consent	-14310
▁delilah	-14311
▁elastic	-14312
▁warrant	-14313
▁shielded	-14314
▁slaughter	-14315
▁recognizing	-14316
fol	-14317
ras	-14318
encer	-14319
naked	-14320
▁frat	-14321
▁unsc	-14322
▁adore	-14323
▁chore	-14324
▁havoc	-14325
▁pixie	-14326
▁spice	-14327
▁ultra	-14328
▁albeit	-14329
▁unchar	-14330
▁knights	-14331
▁trudged	-14332
▁pretense	-14333
▁sizzling	-14334
▁imaginary	-14335
▁selection	-14336
▁sutherland	-14337
▁essentially	-14338
▁scholarship	-14339
illen	-14340
▁awed	-14341
▁edgy	-14342
▁skir	-14343
istics	-14344
riages	-14345
▁exting	-14346
▁hattie	-14347
▁hinges	-14348
▁looped	-14349
▁roller	-14350
▁selene	-14351
▁fiction	-14352
▁kittens	-14353
▁embedded	-14354
▁unreason	-14355
▁indifference	-14356
stri	-14357
▁iam	-14358
▁bows	-14359
▁goog	-14360
▁arena	-14361
▁bangs	-14362
▁noses	-14363
▁sings	-14364
▁actors	-14365
▁beeped	-14366
▁cooling	-14367
▁crumble	-14368
▁resurre	-14369
▁severed	-14370
▁wrecked	-14371
▁crinkled	-14372
▁danielle	-14373
▁ecstatic	-14374
▁toothbrush	-14375
▁heartbroken	-14376
▁infuriating	-14377
▁inheritance	-14378
omen	-14379
grand	-14380
▁pert	-14381
▁sash	-14382
▁abund	-14383
▁nudge	-14384
▁stale	-14385
▁hopping	-14386
▁shadowy	-14387
▁silenced	-14388
▁lightwood	-14389
▁perplexed	-14390
▁splitting	-14391
▁unnoticed	-14392
him	-14393
iat	-14394
bout	-14395
neys	-14396
grade	-14397
▁glob	-14398
▁diagn	-14399
▁kings	-14400
▁solar	-14401
▁arches	-14402
▁issued	-14403
▁rushes	-14404
▁saliva	-14405
▁shroud	-14406
▁spikes	-14407
▁despise	-14408
▁nudging	-14409
▁toddler	-14410
▁vintage	-14411
▁anchored	-14412
▁guidance	-14413
▁invading	-14414
▁seducing	-14415
▁solitude	-14416
▁watchful	-14417
▁slithered	-14418
prot	-14419
rium	-14420
▁bake	-14421
before	-14422
except	-14423
▁drags	-14424
▁links	-14425
▁wager	-14426
▁emerge	-14427
▁weaker	-14428
▁convert	-14429
▁articles	-14430
▁outraged	-14431
▁protector	-14432
▁uncovered	-14433
imand	-14434
▁herd	-14435
▁inad	-14436
▁mari	-14437
▁cigar	-14438
▁disli	-14439
▁reign	-14440
▁tramp	-14441
▁fueled	-14442
▁overse	-14443
▁precar	-14444
▁wafted	-14445
▁branded	-14446
▁manhood	-14447
▁experiments	-14448
▁maintaining	-14449
▁subconscious	-14450
oons	-14451
▁jog	-14452
iency	-14453
inals	-14454
▁fame	-14455
▁crude	-14456
▁curvy	-14457
▁kater	-14458
▁noisy	-14459
▁urian	-14460
▁boldly	-14461
▁debris	-14462
▁palmer	-14463
▁robbed	-14464
▁acutely	-14465
▁clatter	-14466
▁fairies	-14467
▁itching	-14468
▁morphed	-14469
▁obliged	-14470
▁repeats	-14471
▁winking	-14472
▁alliance	-14473
▁declined	-14474
▁pursuing	-14475
▁deposited	-14476
▁reprimand	-14477
▁surviving	-14478
eye	-14479
rona	-14480
▁dag	-14481
▁refe	-14482
▁winds	-14483
▁lorrie	-14484
▁tactic	-14485
▁derrick	-14486
▁fidgeted	-14487
▁plucking	-14488
▁immensely	-14489
▁biological	-14490
▁regretting	-14491
▁immortality	-14492
were	-14493
▁fret	-14494
▁rake	-14495
▁stad	-14496
▁bicep	-14497
▁herit	-14498
▁jaden	-14499
▁shuts	-14500
▁hinted	-14501
▁parall	-14502
▁insults	-14503
▁conjured	-14504
▁glistened	-14505
▁hawthorne	-14506
▁marketing	-14507
▁penetrate	-14508
▁stainless	-14509
▁decorating	-14510
▁yourselves	-14511
fin	-14512
▁dund	-14513
▁jigg	-14514
▁mole	-14515
bridge	-14516
stered	-14517
▁bombs	-14518
▁regal	-14519
▁stoop	-14520
urities	-14521
▁extend	-14522
▁ordeal	-14523
▁workin	-14524
▁blended	-14525
▁slaught	-14526
▁slurred	-14527
▁engulfed	-14528
▁sparking	-14529
▁dominance	-14530
▁prevented	-14531
▁constricted	-14532
▁whereabouts	-14533
cts	-14534
oln	-14535
▁tul	-14536
amine	-14537
tails	-14538
▁bends	-14539
▁butto	-14540
▁skies	-14541
▁ceecee	-14542
▁dawson	-14543
▁pixies	-14544
▁fredrik	-14545
▁wariness	-14546
▁whiskers	-14547
▁inquisitor	-14548
▁thundering	-14549
▁overpowering	-14550
▁involuntarily	-14551
▁si	-14552
▁ugl	-14553
flops	-14554
udded	-14555
▁abbi	-14556
▁cruz	-14557
irties	-14558
▁bathe	-14559
▁becca	-14560
▁glides	-14561
▁maiden	-14562
▁traded	-14563
▁celeste	-14564
▁elbowed	-14565
▁radiant	-14566
▁stadium	-14567
▁flushing	-14568
▁overgrown	-14569
brid	-14570
gold	-14571
▁osc	-14572
atile	-14573
eries	-14574
▁myri	-14575
▁wedd	-14576
▁aroma	-14577
▁beige	-14578
▁sling	-14579
▁urges	-14580
▁aliens	-14581
▁bodily	-14582
▁charco	-14583
▁discon	-14584
▁income	-14585
▁wizard	-14586
▁entitled	-14587
▁calculated	-14588
sha	-14589
gypt	-14590
lust	-14591
▁eug	-14592
▁gps	-14593
▁tir	-14594
▁doom	-14595
▁wail	-14596
▁cords	-14597
▁manly	-14598
▁scorn	-14599
▁whips	-14600
forward	-14601
▁accuse	-14602
▁layton	-14603
▁static	-14604
▁velkan	-14605
hetically	-14606
▁distrust	-14607
▁wavering	-14608
▁sorceress	-14609
▁chandelier	-14610
▁emphasized	-14611
▁stepmother	-14612
▁acknowledging	-14613
cci	-14614
mary	-14615
▁tomb	-14616
▁categ	-14617
▁minus	-14618
▁phase	-14619
▁rogue	-14620
▁ruler	-14621
▁flurry	-14622
▁kenzie	-14623
▁untied	-14624
arations	-14625
▁footman	-14626
[...]
